const unsigned char model[] = {
  0x1c, 0x00, 0x00, 0x00, 0x54, 0x46, 0x4c, 0x33, 0x14, 0x00, 0x20, 0x00,
  0x1c, 0x00, 0x18, 0x00, 0x14, 0x00, 0x10, 0x00, 0x0c, 0x00, 0x00, 0x00,
  0x08, 0x00, 0x04, 0x00, 0x14, 0x00, 0x00, 0x00, 0x1c, 0x00, 0x00, 0x00,
  0x90, 0x00, 0x00, 0x00, 0xe8, 0x00, 0x00, 0x00, 0x2c, 0x09, 0x00, 0x00,
  0x3c, 0x09, 0x00, 0x00, 0xf8, 0x0e, 0x00, 0x00, 0x03, 0x00, 0x00, 0x00,
  0x01, 0x00, 0x00, 0x00, 0x10, 0x00, 0x00, 0x00, 0x00, 0x00, 0x0a, 0x00,
  0x10, 0x00, 0x0c, 0x00, 0x08, 0x00, 0x04, 0x00, 0x0a, 0x00, 0x00, 0x00,
  0x0c, 0x00, 0x00, 0x00, 0x1c, 0x00, 0x00, 0x00, 0x38, 0x00, 0x00, 0x00,
  0x0f, 0x00, 0x00, 0x00, 0x73, 0x65, 0x72, 0x76, 0x69, 0x6e, 0x67, 0x5f,
  0x64, 0x65, 0x66, 0x61, 0x75, 0x6c, 0x74, 0x00, 0x01, 0x00, 0x00, 0x00,
  0x04, 0x00, 0x00, 0x00, 0x98, 0xff, 0xff, 0xff, 0x0a, 0x00, 0x00, 0x00,
  0x04, 0x00, 0x00, 0x00, 0x07, 0x00, 0x00, 0x00, 0x64, 0x65, 0x6e, 0x73,
  0x65, 0x5f, 0x32, 0x00, 0x01, 0x00, 0x00, 0x00, 0x04, 0x00, 0x00, 0x00,
  0xb6, 0xf6, 0xff, 0xff, 0x04, 0x00, 0x00, 0x00, 0x0b, 0x00, 0x00, 0x00,
  0x64, 0x65, 0x6e, 0x73, 0x65, 0x5f, 0x69, 0x6e, 0x70, 0x75, 0x74, 0x00,
  0x02, 0x00, 0x00, 0x00, 0x34, 0x00, 0x00, 0x00, 0x04, 0x00, 0x00, 0x00,
  0xdc, 0xff, 0xff, 0xff, 0x0d, 0x00, 0x00, 0x00, 0x04, 0x00, 0x00, 0x00,
  0x13, 0x00, 0x00, 0x00, 0x43, 0x4f, 0x4e, 0x56, 0x45, 0x52, 0x53, 0x49,
  0x4f, 0x4e, 0x5f, 0x4d, 0x45, 0x54, 0x41, 0x44, 0x41, 0x54, 0x41, 0x00,
  0x08, 0x00, 0x0c, 0x00, 0x08, 0x00, 0x04, 0x00, 0x08, 0x00, 0x00, 0x00,
  0x0c, 0x00, 0x00, 0x00, 0x04, 0x00, 0x00, 0x00, 0x13, 0x00, 0x00, 0x00,
  0x6d, 0x69, 0x6e, 0x5f, 0x72, 0x75, 0x6e, 0x74, 0x69, 0x6d, 0x65, 0x5f,
  0x76, 0x65, 0x72, 0x73, 0x69, 0x6f, 0x6e, 0x00, 0x0e, 0x00, 0x00, 0x00,
  0x40, 0x08, 0x00, 0x00, 0x38, 0x08, 0x00, 0x00, 0xd8, 0x07, 0x00, 0x00,
  0xa0, 0x07, 0x00, 0x00, 0x68, 0x07, 0x00, 0x00, 0x08, 0x07, 0x00, 0x00,
  0xd8, 0x03, 0x00, 0x00, 0xa8, 0x00, 0x00, 0x00, 0xa0, 0x00, 0x00, 0x00,
  0x98, 0x00, 0x00, 0x00, 0x90, 0x00, 0x00, 0x00, 0x88, 0x00, 0x00, 0x00,
  0x68, 0x00, 0x00, 0x00, 0x04, 0x00, 0x00, 0x00, 0x66, 0xf7, 0xff, 0xff,
  0x04, 0x00, 0x00, 0x00, 0x54, 0x00, 0x00, 0x00, 0x0c, 0x00, 0x00, 0x00,
  0x08, 0x00, 0x0e, 0x00, 0x08, 0x00, 0x04, 0x00, 0x08, 0x00, 0x00, 0x00,
  0x10, 0x00, 0x00, 0x00, 0x24, 0x00, 0x00, 0x00, 0x00, 0x00, 0x06, 0x00,
  0x08, 0x00, 0x04, 0x00, 0x06, 0x00, 0x00, 0x00, 0x04, 0x00, 0x00, 0x00,
  0x00, 0x00, 0x00, 0x00, 0x00, 0x00, 0x0a, 0x00, 0x10, 0x00, 0x0c, 0x00,
  0x08, 0x00, 0x04, 0x00, 0x0a, 0x00, 0x00, 0x00, 0x02, 0x00, 0x00, 0x00,
  0x02, 0x00, 0x00, 0x00, 0x04, 0x00, 0x00, 0x00, 0x06, 0x00, 0x00, 0x00,
  0x32, 0x2e, 0x31, 0x32, 0x2e, 0x30, 0x00, 0x00, 0xc6, 0xf7, 0xff, 0xff,
  0x04, 0x00, 0x00, 0x00, 0x10, 0x00, 0x00, 0x00, 0x31, 0x2e, 0x35, 0x2e,
  0x30, 0x00, 0x00, 0x00, 0x00, 0x00, 0x00, 0x00, 0x00, 0x00, 0x00, 0x00,
  0xd4, 0xf2, 0xff, 0xff, 0xd8, 0xf2, 0xff, 0xff, 0xdc, 0xf2, 0xff, 0xff,
  0xe0, 0xf2, 0xff, 0xff, 0xf2, 0xf7, 0xff, 0xff, 0x04, 0x00, 0x00, 0x00,
  0x20, 0x03, 0x00, 0x00, 0x7f, 0xb5, 0x0c, 0xbf, 0x8e, 0xb7, 0xf4, 0xbe,
  0x7a, 0x1f, 0xc1, 0xbf, 0x9a, 0x4e, 0xf7, 0xbe, 0xe1, 0xce, 0x52, 0xbf,
  0xd0, 0x88, 0x46, 0x3e, 0x7f, 0x27, 0x12, 0x40, 0xf5, 0xf9, 0x00, 0x40,
  0x77, 0x35, 0xef, 0xc0, 0xfa, 0x72, 0x93, 0xbe, 0x5f, 0x11, 0xb3, 0xbe,
  0x79, 0x55, 0x16, 0xbe, 0x96, 0xf0, 0xbe, 0x3e, 0x40, 0x5f, 0xf6, 0xbf,
  0xcf, 0xd7, 0x9b, 0xbf, 0x36, 0x32, 0x03, 0xbf, 0x36, 0xe9, 0xba, 0x3f,
  0x65, 0x22, 0x92, 0xbd, 0x05, 0x5c, 0xff, 0xbe, 0xfe, 0xfb, 0x6a, 0x3e,
  0x90, 0xec, 0xce, 0xbe, 0xc2, 0x64, 0x0c, 0xbf, 0x67, 0xfa, 0x10, 0xbe,
  0x73, 0xf5, 0x6f, 0xbd, 0xa7, 0x34, 0x83, 0xbe, 0x2e, 0x59, 0xb7, 0x3e,
  0x97, 0xb7, 0x30, 0x40, 0xb5, 0xb7, 0xcc, 0x3f, 0xf0, 0x46, 0x94, 0x3d,
  0x17, 0x6a, 0x33, 0x40, 0x2f, 0xea, 0x61, 0x40, 0xc1, 0x44, 0x8f, 0x3c,
  0x43, 0x74, 0x19, 0x3f, 0x38, 0xa7, 0x4e, 0xc0, 0xb6, 0xb0, 0xed, 0xbe,
  0x65, 0xc9, 0x59, 0xbf, 0x39, 0x0f, 0xab, 0x3f, 0xa6, 0xbf, 0x0b, 0x3f,
  0xf4, 0xf2, 0x4f, 0xbf, 0xc7, 0x40, 0xc4, 0x3e, 0x45, 0x34, 0x20, 0xc0,
  0x09, 0xe2, 0xc0, 0x3f, 0xd5, 0xe5, 0x02, 0x3e, 0x6f, 0x4f, 0x93, 0xbf,
  0x74, 0x30, 0x91, 0x3d, 0x74, 0x0a, 0xb5, 0x3e, 0xfa, 0xae, 0xc0, 0xbc,
  0xd0, 0xc2, 0x76, 0x3e, 0x04, 0xe4, 0xf6, 0x3f, 0xdf, 0x88, 0x31, 0xc0,
  0x51, 0x07, 0xa4, 0xbf, 0xb4, 0x4f, 0x25, 0x3f, 0xee, 0xe1, 0x84, 0x3e,
  0xbb, 0x0f, 0x3f, 0x3f, 0x62, 0x3d, 0xaf, 0xbf, 0x4b, 0xb8, 0x0e, 0xc0,
  0x03, 0x21, 0x37, 0x3d, 0x68, 0xce, 0x26, 0x40, 0xff, 0x4e, 0xe6, 0xbb,
  0x92, 0x75, 0x74, 0xbd, 0xbe, 0x8e, 0x81, 0xbf, 0x66, 0x13, 0x01, 0xc0,
  0xb5, 0x73, 0x28, 0x40, 0xa3, 0x79, 0x40, 0x40, 0x84, 0x79, 0x40, 0x40,
  0x65, 0xed, 0xbb, 0xbe, 0x7f, 0x52, 0x34, 0x40, 0xa9, 0x2b, 0x36, 0x3e,
  0xea, 0xfb, 0xa0, 0xbf, 0x8d, 0x9d, 0xc8, 0x40, 0x7e, 0x6a, 0x44, 0xc0,
  0x84, 0x25, 0xda, 0xbf, 0xab, 0x6f, 0x31, 0xbf, 0x03, 0xdb, 0x0d, 0xbe,
  0xe8, 0xfb, 0xf3, 0x3e, 0x32, 0x9a, 0xf8, 0x3e, 0x54, 0xf1, 0x97, 0xbf,
  0x24, 0x46, 0x8a, 0x3f, 0x27, 0x5c, 0xe0, 0xbf, 0x1c, 0x75, 0xdc, 0xbe,
  0xaf, 0x22, 0xb8, 0xbf, 0x80, 0x38, 0x8a, 0x3f, 0xab, 0x13, 0x11, 0xc0,
  0xac, 0x8c, 0xa2, 0x40, 0xbc, 0x76, 0x45, 0xbf, 0xc8, 0x32, 0x26, 0x3d,
  0x92, 0x7a, 0xc5, 0x40, 0xc0, 0x83, 0x50, 0x3e, 0x7d, 0x3e, 0xc0, 0x40,
  0x08, 0xd8, 0x0a, 0xc0, 0xf2, 0xe1, 0xc5, 0xbe, 0x59, 0x06, 0x6d, 0xbf,
  0x0a, 0xf8, 0x97, 0x3e, 0x42, 0x56, 0x9d, 0xbf, 0x10, 0x68, 0x6c, 0xc0,
  0x56, 0x6f, 0x6d, 0xbf, 0xe1, 0x81, 0xd0, 0xbf, 0x85, 0xea, 0xab, 0xc0,
  0x50, 0xb9, 0xb1, 0xbf, 0x7d, 0xb8, 0xcd, 0xbd, 0x79, 0xa7, 0x1a, 0xbf,
  0x40, 0xa7, 0xfc, 0x3e, 0x50, 0x66, 0xa9, 0x3f, 0x06, 0x17, 0x8e, 0x3e,
  0xe3, 0x1a, 0x85, 0x3f, 0x5d, 0xb3, 0xcf, 0xbe, 0xdf, 0x0b, 0x49, 0xc0,
  0x04, 0x93, 0x70, 0xbf, 0xeb, 0xf5, 0xe9, 0x3f, 0xdf, 0x91, 0x83, 0xbf,
  0x0f, 0x59, 0x1d, 0x3f, 0xb0, 0xdc, 0x41, 0xbf, 0xbc, 0x39, 0xbb, 0x3e,
  0xb7, 0xfa, 0x8b, 0xbd, 0xf8, 0x54, 0x8b, 0xbe, 0xbd, 0xd8, 0xcb, 0xbe,
  0x39, 0x4a, 0x1f, 0xbf, 0xa8, 0x45, 0x9c, 0xbe, 0x58, 0x05, 0x44, 0xbf,
  0xed, 0x5f, 0x44, 0x3b, 0xcd, 0xcb, 0x4a, 0x40, 0x16, 0x02, 0x00, 0xc0,
  0x22, 0x80, 0x78, 0xc0, 0x28, 0xdc, 0xb8, 0x3f, 0x7c, 0x9d, 0xd0, 0xc0,
  0xe0, 0x11, 0xca, 0x3c, 0x20, 0xb4, 0xb4, 0xc0, 0xa8, 0x3e, 0x96, 0x40,
  0xff, 0xfc, 0xe0, 0x3f, 0x96, 0xfe, 0xb8, 0xbf, 0x5a, 0x59, 0xf4, 0xbd,
  0xcd, 0xf9, 0x19, 0x40, 0x9f, 0x18, 0xd4, 0xbb, 0xd8, 0xfd, 0x15, 0x40,
  0x44, 0x60, 0x45, 0xc0, 0xa1, 0x77, 0xcd, 0x3e, 0x9e, 0xdb, 0x60, 0xbe,
  0x2d, 0xf0, 0x4e, 0x40, 0x4d, 0x50, 0xcf, 0x40, 0x71, 0x9a, 0x5c, 0x3e,
  0x29, 0x96, 0x77, 0xbd, 0x53, 0xba, 0xc7, 0xbf, 0x2b, 0x09, 0x2f, 0xbf,
  0xd3, 0xf2, 0x03, 0x3e, 0x34, 0x36, 0x30, 0x40, 0x9a, 0x70, 0x5f, 0xbe,
  0xab, 0xb2, 0xaa, 0xbf, 0x5e, 0xe9, 0xe0, 0x3f, 0x03, 0xe9, 0x4e, 0xbf,
  0x09, 0x95, 0x68, 0x3e, 0xee, 0xdc, 0x41, 0x3f, 0x28, 0xd7, 0x16, 0xc0,
  0xf8, 0x0a, 0xe1, 0x3e, 0xdb, 0x66, 0x84, 0x3f, 0x20, 0xcd, 0x3a, 0x40,
  0xb6, 0xe4, 0x71, 0x3f, 0xa6, 0x47, 0xe9, 0xbf, 0x55, 0xe8, 0x84, 0x40,
  0xed, 0xa2, 0x1d, 0xbf, 0xaf, 0x03, 0x23, 0x3d, 0x2a, 0x5b, 0x8c, 0x3f,
  0x13, 0x0a, 0xcb, 0x3f, 0x3f, 0xb8, 0x21, 0x3f, 0x72, 0xd2, 0xdd, 0xbd,
  0x6b, 0x35, 0xf9, 0x3d, 0xee, 0x66, 0x82, 0x3e, 0x27, 0x9e, 0x9f, 0xbe,
  0x77, 0x74, 0xc0, 0xc0, 0x47, 0xaf, 0xca, 0x3e, 0x0e, 0xd5, 0xf5, 0xbe,
  0x98, 0x14, 0xc6, 0xbd, 0x3d, 0xc8, 0x88, 0x3f, 0xc8, 0xde, 0x3f, 0xbe,
  0xeb, 0x34, 0x87, 0x3f, 0x32, 0xc8, 0xac, 0x3f, 0x20, 0x34, 0xb6, 0x3f,
  0xef, 0x00, 0x07, 0x40, 0x2a, 0xb9, 0xc6, 0xc0, 0x8f, 0x34, 0x91, 0x3f,
  0x07, 0xc7, 0x31, 0xbe, 0xe1, 0xed, 0xb2, 0x3f, 0x8a, 0x98, 0x4a, 0x40,
  0x7c, 0x8d, 0x57, 0x40, 0x84, 0x98, 0x13, 0xc1, 0x98, 0x86, 0x1a, 0x40,
  0xa4, 0xef, 0xb1, 0xbe, 0x4b, 0x18, 0x6a, 0xc0, 0x10, 0x12, 0x72, 0xc0,
  0x5b, 0x53, 0x30, 0xc0, 0x48, 0xfb, 0x89, 0xbd, 0xef, 0x43, 0xb9, 0x3f,
  0xcd, 0x68, 0xbe, 0x3f, 0x3c, 0x33, 0xdf, 0x3e, 0xf0, 0xd8, 0x83, 0x3f,
  0x7c, 0xbe, 0x79, 0x40, 0xc9, 0x93, 0x74, 0x3f, 0xbc, 0x2a, 0x38, 0xbe,
  0x12, 0x9e, 0x3f, 0x3f, 0x95, 0x0b, 0x02, 0xbf, 0xbf, 0x97, 0x00, 0xbe,
  0x1e, 0xfb, 0xff, 0xff, 0x04, 0x00, 0x00, 0x00, 0x20, 0x03, 0x00, 0x00,
  0x37, 0x15, 0x37, 0xbf, 0x47, 0xfa, 0xbc, 0x3e, 0xfb, 0x2e, 0x69, 0xbf,
  0xba, 0x8e, 0x3f, 0x3f, 0x9b, 0xd0, 0xc7, 0x3e, 0x70, 0x45, 0x9a, 0x3f,
  0xad, 0x77, 0x8f, 0x3f, 0x1b, 0xbe, 0xa4, 0x3e, 0xf5, 0xde, 0x80, 0xbf,
  0xe4, 0xc7, 0x06, 0x40, 0xef, 0x71, 0xa8, 0x3f, 0xb9, 0x78, 0xdb, 0xbd,
  0x36, 0x66, 0x5d, 0xbf, 0xf1, 0x38, 0x09, 0xbe, 0xb0, 0xf3, 0x49, 0x40,
  0x3c, 0x2a, 0xaa, 0xbe, 0xef, 0x5d, 0xcd, 0x3f, 0xf4, 0xf4, 0x12, 0x3f,
  0x7c, 0xb6, 0x5e, 0xc0, 0x44, 0x53, 0x2e, 0x3f, 0x4f, 0xea, 0x27, 0xc0,
  0xa5, 0x33, 0x3d, 0xbd, 0x22, 0x71, 0xc2, 0x3e, 0xb5, 0xe1, 0x8a, 0xbe,
  0xe4, 0x3a, 0x7b, 0x40, 0xeb, 0xed, 0x7b, 0xbf, 0xd6, 0x86, 0x6c, 0x40,
  0xd0, 0x1d, 0xfb, 0xbd, 0xd8, 0x53, 0x41, 0x3f, 0x3e, 0x69, 0x75, 0xbf,
  0xc6, 0x52, 0x8d, 0xc0, 0x79, 0xa0, 0x01, 0xbe, 0xdb, 0x49, 0xe6, 0x3d,
  0xe2, 0x4e, 0x34, 0xbf, 0xf4, 0x83, 0xe1, 0x40, 0x34, 0xc6, 0xa5, 0xc0,
  0x27, 0xf0, 0xf0, 0x3f, 0xa9, 0xe8, 0xf3, 0xbe, 0x70, 0x19, 0x82, 0x3e,
  0x27, 0xca, 0x5e, 0xc0, 0xa0, 0x69, 0xb5, 0xc0, 0x79, 0x60, 0x51, 0x3e,
  0xd8, 0x61, 0x01, 0x3b, 0x91, 0xba, 0x2f, 0xbf, 0x57, 0x24, 0xb5, 0xbf,
  0xae, 0x3a, 0x01, 0x40, 0x5d, 0xeb, 0x34, 0x40, 0x20, 0x01, 0x99, 0x3d,
  0xfe, 0x87, 0x47, 0xbe, 0x35, 0xe5, 0x1f, 0x40, 0x91, 0x28, 0x5e, 0xbe,
  0x39, 0xa9, 0x1f, 0x3f, 0x95, 0x78, 0xce, 0x3e, 0xa5, 0xfb, 0x3b, 0xbf,
  0xbf, 0x68, 0x5d, 0xbf, 0x0c, 0x3f, 0x20, 0x3e, 0x39, 0xc7, 0x18, 0xbf,
  0x86, 0xcf, 0x88, 0xbe, 0x7d, 0x37, 0x01, 0x3f, 0x27, 0xda, 0xf6, 0xbe,
  0x06, 0x73, 0x3e, 0x40, 0x45, 0xe0, 0xdf, 0xbe, 0xba, 0x46, 0x9a, 0xbe,
  0x4a, 0x9a, 0x31, 0xbd, 0xfa, 0x61, 0x76, 0xc0, 0xba, 0xb7, 0x5b, 0x40,
  0xc2, 0xd9, 0x7c, 0xc0, 0xff, 0x0a, 0x4a, 0xbf, 0xd1, 0xb4, 0x2a, 0x40,
  0xd2, 0xcb, 0x4b, 0x40, 0x4d, 0x41, 0x13, 0x3f, 0x67, 0x34, 0x6c, 0x3d,
  0x56, 0xa3, 0x01, 0x3f, 0x2f, 0x42, 0x3b, 0x3e, 0x6e, 0x8b, 0x73, 0xc0,
  0x90, 0x8a, 0x5b, 0x40, 0x87, 0x9f, 0x7b, 0xc0, 0x11, 0x8b, 0x85, 0xbe,
  0x78, 0xbb, 0x42, 0x3f, 0x64, 0x58, 0x70, 0x40, 0x36, 0x5c, 0x01, 0x40,
  0x5c, 0x0e, 0xcd, 0x3e, 0x3c, 0x28, 0x3d, 0x3d, 0x7f, 0x66, 0xce, 0x3d,
  0x7a, 0x80, 0xba, 0x40, 0xcb, 0x51, 0x00, 0xbf, 0xe8, 0x07, 0x17, 0xbe,
  0x05, 0xee, 0x63, 0xbd, 0xf5, 0x22, 0x00, 0x40, 0xe1, 0x54, 0x92, 0xc0,
  0xcb, 0xe3, 0x0f, 0x3e, 0x7f, 0x6d, 0x82, 0xbd, 0x7d, 0xba, 0xa2, 0xbd,
  0xce, 0x3e, 0x5f, 0xbd, 0xb7, 0x54, 0xe3, 0x3f, 0x77, 0xed, 0xf7, 0xc0,
  0x62, 0x67, 0xa3, 0x3d, 0x11, 0x1d, 0x66, 0xbf, 0x9c, 0x56, 0x82, 0x3f,
  0x68, 0x3e, 0x34, 0xc0, 0x15, 0x94, 0x2b, 0xc0, 0xa1, 0x42, 0xdd, 0x3e,
  0xfb, 0x6a, 0x61, 0xbf, 0x02, 0xc7, 0xbd, 0x3d, 0xc8, 0x88, 0x11, 0x3d,
  0xf7, 0x59, 0xcf, 0xbf, 0x20, 0xa5, 0x81, 0x40, 0xd3, 0x21, 0xbd, 0xbe,
  0xd4, 0x0a, 0x21, 0x40, 0xd3, 0x6d, 0xf6, 0x3e, 0x28, 0xd0, 0x19, 0x40,
  0xd0, 0xbf, 0x0e, 0x3f, 0x9b, 0xd7, 0x05, 0x3f, 0x99, 0x59, 0x0f, 0xbf,
  0x97, 0xb9, 0x62, 0xbf, 0xea, 0x5a, 0x3c, 0x3f, 0xec, 0x44, 0xb7, 0x3f,
  0xb5, 0xf3, 0x49, 0xbe, 0x64, 0xe9, 0xc1, 0xbf, 0x46, 0x36, 0x03, 0x40,
  0x6a, 0x9e, 0x81, 0x3f, 0x2f, 0x5e, 0x28, 0x3f, 0xa7, 0x9e, 0x85, 0xbe,
  0xde, 0xb8, 0x48, 0xbe, 0x39, 0x4e, 0x82, 0xbe, 0xf2, 0x06, 0xf5, 0xbe,
  0xb4, 0xfb, 0xce, 0x3c, 0xa9, 0xf4, 0x18, 0x3e, 0xe8, 0x07, 0x2f, 0xbf,
  0x2d, 0xad, 0x81, 0xbf, 0x85, 0xe9, 0x30, 0xc0, 0x5c, 0x26, 0xe3, 0x3d,
  0x3e, 0x9d, 0xf9, 0xbd, 0xb4, 0xdd, 0x44, 0x3f, 0xdd, 0x1d, 0xb6, 0x3e,
  0x8f, 0x0f, 0xd4, 0x3f, 0xae, 0xfd, 0x16, 0x40, 0xd5, 0xa7, 0x22, 0xbe,
  0xed, 0x1e, 0x51, 0x3d, 0x51, 0x71, 0xd3, 0x3e, 0x7b, 0x8d, 0xb6, 0xc0,
  0x66, 0x7f, 0x08, 0x3f, 0x87, 0x5e, 0xdc, 0xbe, 0xdb, 0x20, 0x2e, 0xbe,
  0xd9, 0x62, 0x62, 0x40, 0x82, 0x75, 0xe7, 0xbf, 0xe4, 0x95, 0x62, 0x40,
  0xea, 0xbb, 0x06, 0x3e, 0x2c, 0x40, 0x86, 0xbf, 0x32, 0xb2, 0x84, 0x3f,
  0x17, 0x5e, 0x02, 0xc0, 0xec, 0x90, 0x37, 0xbe, 0x97, 0x78, 0xf2, 0x3c,
  0x36, 0xdc, 0x45, 0x3f, 0x27, 0xfd, 0x22, 0x3f, 0x57, 0x17, 0x5d, 0xbf,
  0x49, 0x08, 0xa6, 0x3f, 0x5f, 0x78, 0xf2, 0xbe, 0xcc, 0x3b, 0x8e, 0x3e,
  0x12, 0x59, 0xbf, 0x3f, 0x76, 0x83, 0x50, 0x3f, 0xdb, 0xfb, 0x37, 0x3f,
  0xa6, 0x6d, 0x45, 0xbf, 0xad, 0x8b, 0x19, 0xbd, 0x56, 0x35, 0x14, 0x40,
  0x0e, 0xc0, 0x0e, 0xbf, 0x55, 0xd1, 0x12, 0xc0, 0x6f, 0x8d, 0x4f, 0x3d,
  0x9d, 0x58, 0x15, 0xbe, 0x6f, 0xcd, 0x15, 0x40, 0x03, 0x89, 0xc7, 0x40,
  0x80, 0xfa, 0x19, 0x3e, 0x81, 0x60, 0xf5, 0xbd, 0x19, 0x27, 0x19, 0xbe,
  0x06, 0x3b, 0x95, 0x40, 0xf0, 0x95, 0xc5, 0xbf, 0x0b, 0xa5, 0x77, 0xc0,
  0xe0, 0x77, 0x08, 0x3f, 0x6d, 0xf0, 0xa3, 0x3f, 0xa7, 0xfc, 0x62, 0xc0,
  0x4d, 0xe3, 0x9d, 0x3f, 0x36, 0x09, 0x0a, 0x3f, 0xbe, 0x22, 0x28, 0x3d,
  0xf9, 0xed, 0xc4, 0xbe, 0x22, 0x33, 0x6a, 0xbf, 0x61, 0x25, 0x18, 0x40,
  0x31, 0xbc, 0xed, 0xbd, 0x70, 0x6b, 0x65, 0x3e, 0x72, 0x19, 0xaa, 0xbe,
  0xa7, 0x56, 0x33, 0x40, 0xdf, 0xe2, 0x13, 0x3f, 0x40, 0x6e, 0xc0, 0x3e,
  0xf1, 0x0d, 0x1e, 0xbf, 0xad, 0x32, 0x19, 0x3f, 0x2f, 0xee, 0x95, 0xbd,
  0xa8, 0xf2, 0xa8, 0x3e, 0x20, 0xa0, 0xb2, 0xbe, 0xd9, 0x38, 0xe6, 0xbc,
  0x4c, 0x41, 0x09, 0xbf, 0xa3, 0x68, 0x12, 0xbe, 0x4a, 0xfe, 0xff, 0xff,
  0x04, 0x00, 0x00, 0x00, 0x50, 0x00, 0x00, 0x00, 0x82, 0xc8, 0xca, 0x3f,
  0xa8, 0x9e, 0x5a, 0xc1, 0x34, 0x05, 0x26, 0x3d, 0x43, 0xa7, 0xaf, 0xbf,
  0x1c, 0x0a, 0xc8, 0xbe, 0xe7, 0xc4, 0x4b, 0xbe, 0x0a, 0x35, 0xae, 0xbf,
  0x52, 0xcc, 0x9a, 0xbf, 0x3f, 0x6a, 0x1c, 0xc1, 0xd0, 0x1c, 0x12, 0x41,
  0x9b, 0x13, 0x2a, 0x41, 0x31, 0xd7, 0xb1, 0x3f, 0x7a, 0x8c, 0xab, 0x40,
  0x67, 0xc4, 0x2f, 0xc1, 0x2f, 0x18, 0x62, 0xbf, 0xbd, 0x7b, 0xe8, 0x3d,
  0xf7, 0xe7, 0x50, 0x3e, 0x58, 0x58, 0x07, 0xc0, 0x9d, 0x8e, 0x1e, 0x41,
  0xfc, 0xb0, 0x26, 0x40, 0xa6, 0xfe, 0xff, 0xff, 0x04, 0x00, 0x00, 0x00,
  0x28, 0x00, 0x00, 0x00, 0x9e, 0xb9, 0x71, 0x40, 0x68, 0xec, 0xf2, 0xb7,
  0x00, 0x00, 0x00, 0x00, 0x00, 0x00, 0x00, 0x00, 0xa5, 0x6e, 0x62, 0x40,
  0x82, 0xcf, 0x41, 0xbe, 0xbc, 0xd8, 0x66, 0x40, 0x28, 0x03, 0x41, 0xbc,
  0x03, 0x76, 0x66, 0x40, 0x13, 0xc7, 0xfd, 0xbf, 0xda, 0xfe, 0xff, 0xff,
  0x04, 0x00, 0x00, 0x00, 0x28, 0x00, 0x00, 0x00, 0xc0, 0x82, 0xcb, 0xbf,
  0xd1, 0x74, 0xb0, 0x3f, 0x33, 0xfe, 0xb9, 0x3f, 0x60, 0x2b, 0x88, 0x3e,
  0x46, 0xc0, 0x29, 0x3e, 0x44, 0x37, 0x7e, 0xbe, 0xca, 0x00, 0x1f, 0xbf,
  0xd1, 0x8d, 0x95, 0x3e, 0xde, 0xb4, 0xf0, 0xbe, 0x3f, 0x47, 0x20, 0xbf,
  0x0e, 0xff, 0xff, 0xff, 0x04, 0x00, 0x00, 0x00, 0x50, 0x00, 0x00, 0x00,
  0xe1, 0x72, 0x09, 0xbe, 0x86, 0x91, 0xaf, 0xbf, 0x9d, 0x85, 0x61, 0xbe,
  0xdb, 0x64, 0xd3, 0x3f, 0x2f, 0xaf, 0x1a, 0x3f, 0x00, 0x00, 0x00, 0x00,
  0x42, 0x2e, 0xc8, 0x3f, 0x58, 0x62, 0xb2, 0x3c, 0xb7, 0xb5, 0x52, 0x40,
  0x4c, 0x0f, 0x10, 0x3f, 0x66, 0x05, 0x68, 0x3f, 0x17, 0x1f, 0x11, 0xbf,
  0x3d, 0xa4, 0xf1, 0xbd, 0x27, 0x7e, 0x01, 0x3e, 0xc9, 0x9f, 0x8b, 0xbe,
  0x8b, 0xf9, 0xa8, 0xbe, 0x08, 0x03, 0x7d, 0xbf, 0xc4, 0x54, 0xd2, 0x3f,
  0x09, 0x40, 0xe9, 0x3e, 0x11, 0xe5, 0xd5, 0xb9, 0x5c, 0xfa, 0xff, 0xff,
  0x60, 0xfa, 0xff, 0xff, 0x0f, 0x00, 0x00, 0x00, 0x4d, 0x4c, 0x49, 0x52,
  0x20, 0x43, 0x6f, 0x6e, 0x76, 0x65, 0x72, 0x74, 0x65, 0x64, 0x2e, 0x00,
  0x01, 0x00, 0x00, 0x00, 0x14, 0x00, 0x00, 0x00, 0x00, 0x00, 0x0e, 0x00,
  0x18, 0x00, 0x14, 0x00, 0x10, 0x00, 0x0c, 0x00, 0x08, 0x00, 0x04, 0x00,
  0x0e, 0x00, 0x00, 0x00, 0x14, 0x00, 0x00, 0x00, 0x1c, 0x00, 0x00, 0x00,
  0x24, 0x01, 0x00, 0x00, 0x28, 0x01, 0x00, 0x00, 0x2c, 0x01, 0x00, 0x00,
  0x04, 0x00, 0x00, 0x00, 0x6d, 0x61, 0x69, 0x6e, 0x00, 0x00, 0x00, 0x00,
  0x04, 0x00, 0x00, 0x00, 0xcc, 0x00, 0x00, 0x00, 0x84, 0x00, 0x00, 0x00,
  0x50, 0x00, 0x00, 0x00, 0x14, 0x00, 0x00, 0x00, 0x00, 0x00, 0x0e, 0x00,
  0x1a, 0x00, 0x14, 0x00, 0x10, 0x00, 0x0c, 0x00, 0x0b, 0x00, 0x04, 0x00,
  0x0e, 0x00, 0x00, 0x00, 0x1c, 0x00, 0x00, 0x00, 0x00, 0x00, 0x00, 0x09,
  0x1c, 0x00, 0x00, 0x00, 0x20, 0x00, 0x00, 0x00, 0x01, 0x00, 0x00, 0x00,
  0x00, 0x00, 0x06, 0x00, 0x08, 0x00, 0x04, 0x00, 0x06, 0x00, 0x00, 0x00,
  0x00, 0x00, 0x80, 0x3f, 0x01, 0x00, 0x00, 0x00, 0x0a, 0x00, 0x00, 0x00,
  0x01, 0x00, 0x00, 0x00, 0x09, 0x00, 0x00, 0x00, 0x9a, 0xff, 0xff, 0xff,
  0x10, 0x00, 0x00, 0x00, 0x00, 0x00, 0x00, 0x08, 0x0c, 0x00, 0x00, 0x00,
  0x10, 0x00, 0x00, 0x00, 0x24, 0xfb, 0xff, 0xff, 0x01, 0x00, 0x00, 0x00,
  0x09, 0x00, 0x00, 0x00, 0x03, 0x00, 0x00, 0x00, 0x08, 0x00, 0x00, 0x00,
  0x06, 0x00, 0x00, 0x00, 0x02, 0x00, 0x00, 0x00, 0xca, 0xff, 0xff, 0xff,
  0x10, 0x00, 0x00, 0x00, 0x00, 0x00, 0x00, 0x08, 0x10, 0x00, 0x00, 0x00,
  0x14, 0x00, 0x00, 0x00, 0xba, 0xff, 0xff, 0xff, 0x00, 0x00, 0x00, 0x01,
  0x01, 0x00, 0x00, 0x00, 0x08, 0x00, 0x00, 0x00, 0x03, 0x00, 0x00, 0x00,
  0x07, 0x00, 0x00, 0x00, 0x05, 0x00, 0x00, 0x00, 0x01, 0x00, 0x00, 0x00,
  0x00, 0x00, 0x0e, 0x00, 0x16, 0x00, 0x00, 0x00, 0x10, 0x00, 0x0c, 0x00,
  0x0b, 0x00, 0x04, 0x00, 0x0e, 0x00, 0x00, 0x00, 0x18, 0x00, 0x00, 0x00,
  0x00, 0x00, 0x00, 0x08, 0x18, 0x00, 0x00, 0x00, 0x1c, 0x00, 0x00, 0x00,
  0x00, 0x00, 0x06, 0x00, 0x08, 0x00, 0x07, 0x00, 0x06, 0x00, 0x00, 0x00,
  0x00, 0x00, 0x00, 0x01, 0x01, 0x00, 0x00, 0x00, 0x07, 0x00, 0x00, 0x00,
  0x03, 0x00, 0x00, 0x00, 0x00, 0x00, 0x00, 0x00, 0x04, 0x00, 0x00, 0x00,
  0x03, 0x00, 0x00, 0x00, 0x01, 0x00, 0x00, 0x00, 0x0a, 0x00, 0x00, 0x00,
  0x01, 0x00, 0x00, 0x00, 0x00, 0x00, 0x00, 0x00, 0x0b, 0x00, 0x00, 0x00,
  0x04, 0x04, 0x00, 0x00, 0x94, 0x03, 0x00, 0x00, 0x24, 0x03, 0x00, 0x00,
  0xd0, 0x02, 0x00, 0x00, 0x88, 0x02, 0x00, 0x00, 0x3c, 0x02, 0x00, 0x00,
  0xf0, 0x01, 0x00, 0x00, 0x68, 0x01, 0x00, 0x00, 0xd8, 0x00, 0x00, 0x00,
  0x60, 0x00, 0x00, 0x00, 0x04, 0x00, 0x00, 0x00, 0x3e, 0xfc, 0xff, 0xff,
  0x00, 0x00, 0x00, 0x01, 0x14, 0x00, 0x00, 0x00, 0x1c, 0x00, 0x00, 0x00,
  0x1c, 0x00, 0x00, 0x00, 0x0b, 0x00, 0x00, 0x00, 0x34, 0x00, 0x00, 0x00,
  0x02, 0x00, 0x00, 0x00, 0xff, 0xff, 0xff, 0xff, 0x0a, 0x00, 0x00, 0x00,
  0x28, 0xfc, 0xff, 0xff, 0x19, 0x00, 0x00, 0x00, 0x53, 0x74, 0x61, 0x74,
  0x65, 0x66, 0x75, 0x6c, 0x50, 0x61, 0x72, 0x74, 0x69, 0x74, 0x69, 0x6f,
  0x6e, 0x65, 0x64, 0x43, 0x61, 0x6c, 0x6c, 0x3a, 0x30, 0x00, 0x00, 0x00,
  0x02, 0x00, 0x00, 0x00, 0x01, 0x00, 0x00, 0x00, 0x0a, 0x00, 0x00, 0x00,
  0x96, 0xfc, 0xff, 0xff, 0x00, 0x00, 0x00, 0x01, 0x14, 0x00, 0x00, 0x00,
  0x1c, 0x00, 0x00, 0x00, 0x1c, 0x00, 0x00, 0x00, 0x0a, 0x00, 0x00, 0x00,
  0x50, 0x00, 0x00, 0x00, 0x02, 0x00, 0x00, 0x00, 0xff, 0xff, 0xff, 0xff,
  0x0a, 0x00, 0x00, 0x00, 0x80, 0xfc, 0xff, 0xff, 0x34, 0x00, 0x00, 0x00,
  0x73, 0x65, 0x71, 0x75, 0x65, 0x6e, 0x74, 0x69, 0x61, 0x6c, 0x2f, 0x64,
  0x65, 0x6e, 0x73, 0x65, 0x5f, 0x32, 0x2f, 0x4d, 0x61, 0x74, 0x4d, 0x75,
  0x6c, 0x3b, 0x73, 0x65, 0x71, 0x75, 0x65, 0x6e, 0x74, 0x69, 0x61, 0x6c,
  0x2f, 0x64, 0x65, 0x6e, 0x73, 0x65, 0x5f, 0x32, 0x2f, 0x42, 0x69, 0x61,
  0x73, 0x41, 0x64, 0x64, 0x00, 0x00, 0x00, 0x00, 0x02, 0x00, 0x00, 0x00,
  0x01, 0x00, 0x00, 0x00, 0x0a, 0x00, 0x00, 0x00, 0x0a, 0xfd, 0xff, 0xff,
  0x00, 0x00, 0x00, 0x01, 0x14, 0x00, 0x00, 0x00, 0x1c, 0x00, 0x00, 0x00,
  0x1c, 0x00, 0x00, 0x00, 0x09, 0x00, 0x00, 0x00, 0x68, 0x00, 0x00, 0x00,
  0x02, 0x00, 0x00, 0x00, 0xff, 0xff, 0xff, 0xff, 0x14, 0x00, 0x00, 0x00,
  0xf4, 0xfc, 0xff, 0xff, 0x4c, 0x00, 0x00, 0x00, 0x73, 0x65, 0x71, 0x75,
  0x65, 0x6e, 0x74, 0x69, 0x61, 0x6c, 0x2f, 0x64, 0x65, 0x6e, 0x73, 0x65,
  0x5f, 0x31, 0x2f, 0x4d, 0x61, 0x74, 0x4d, 0x75, 0x6c, 0x3b, 0x73, 0x65,
  0x71, 0x75, 0x65, 0x6e, 0x74, 0x69, 0x61, 0x6c, 0x2f, 0x64, 0x65, 0x6e,
  0x73, 0x65, 0x5f, 0x31, 0x2f, 0x52, 0x65, 0x6c, 0x75, 0x3b, 0x73, 0x65,
  0x71, 0x75, 0x65, 0x6e, 0x74, 0x69, 0x61, 0x6c, 0x2f, 0x64, 0x65, 0x6e,
  0x73, 0x65, 0x5f, 0x31, 0x2f, 0x42, 0x69, 0x61, 0x73, 0x41, 0x64, 0x64,
  0x00, 0x00, 0x00, 0x00, 0x02, 0x00, 0x00, 0x00, 0x01, 0x00, 0x00, 0x00,
  0x14, 0x00, 0x00, 0x00, 0x96, 0xfd, 0xff, 0xff, 0x00, 0x00, 0x00, 0x01,
  0x14, 0x00, 0x00, 0x00, 0x1c, 0x00, 0x00, 0x00, 0x1c, 0x00, 0x00, 0x00,
  0x08, 0x00, 0x00, 0x00, 0x60, 0x00, 0x00, 0x00, 0x02, 0x00, 0x00, 0x00,
  0xff, 0xff, 0xff, 0xff, 0x0a, 0x00, 0x00, 0x00, 0x80, 0xfd, 0xff, 0xff,
  0x46, 0x00, 0x00, 0x00, 0x73, 0x65, 0x71, 0x75, 0x65, 0x6e, 0x74, 0x69,
  0x61, 0x6c, 0x2f, 0x64, 0x65, 0x6e, 0x73, 0x65, 0x2f, 0x4d, 0x61, 0x74,
  0x4d, 0x75, 0x6c, 0x3b, 0x73, 0x65, 0x71, 0x75, 0x65, 0x6e, 0x74, 0x69,
  0x61, 0x6c, 0x2f, 0x64, 0x65, 0x6e, 0x73, 0x65, 0x2f, 0x52, 0x65, 0x6c,
  0x75, 0x3b, 0x73, 0x65, 0x71, 0x75, 0x65, 0x6e, 0x74, 0x69, 0x61, 0x6c,
  0x2f, 0x64, 0x65, 0x6e, 0x73, 0x65, 0x2f, 0x42, 0x69, 0x61, 0x73, 0x41,
  0x64, 0x64, 0x00, 0x00, 0x02, 0x00, 0x00, 0x00, 0x01, 0x00, 0x00, 0x00,
  0x0a, 0x00, 0x00, 0x00, 0x86, 0xfe, 0xff, 0xff, 0x00, 0x00, 0x00, 0x01,
  0x10, 0x00, 0x00, 0x00, 0x10, 0x00, 0x00, 0x00, 0x07, 0x00, 0x00, 0x00,
  0x28, 0x00, 0x00, 0x00, 0xf4, 0xfd, 0xff, 0xff, 0x19, 0x00, 0x00, 0x00,
  0x73, 0x65, 0x71, 0x75, 0x65, 0x6e, 0x74, 0x69, 0x61, 0x6c, 0x2f, 0x64,
  0x65, 0x6e, 0x73, 0x65, 0x5f, 0x32, 0x2f, 0x4d, 0x61, 0x74, 0x4d, 0x75,
  0x6c, 0x00, 0x00, 0x00, 0x02, 0x00, 0x00, 0x00, 0x0a, 0x00, 0x00, 0x00,
  0x14, 0x00, 0x00, 0x00, 0xce, 0xfe, 0xff, 0xff, 0x00, 0x00, 0x00, 0x01,
  0x10, 0x00, 0x00, 0x00, 0x10, 0x00, 0x00, 0x00, 0x06, 0x00, 0x00, 0x00,
  0x28, 0x00, 0x00, 0x00, 0x3c, 0xfe, 0xff, 0xff, 0x19, 0x00, 0x00, 0x00,
  0x73, 0x65, 0x71, 0x75, 0x65, 0x6e, 0x74, 0x69, 0x61, 0x6c, 0x2f, 0x64,
  0x65, 0x6e, 0x73, 0x65, 0x5f, 0x31, 0x2f, 0x4d, 0x61, 0x74, 0x4d, 0x75,
  0x6c, 0x00, 0x00, 0x00, 0x02, 0x00, 0x00, 0x00, 0x14, 0x00, 0x00, 0x00,
  0x0a, 0x00, 0x00, 0x00, 0x16, 0xff, 0xff, 0xff, 0x00, 0x00, 0x00, 0x01,
  0x10, 0x00, 0x00, 0x00, 0x10, 0x00, 0x00, 0x00, 0x05, 0x00, 0x00, 0x00,
  0x24, 0x00, 0x00, 0x00, 0x84, 0xfe, 0xff, 0xff, 0x17, 0x00, 0x00, 0x00,
  0x73, 0x65, 0x71, 0x75, 0x65, 0x6e, 0x74, 0x69, 0x61, 0x6c, 0x2f, 0x64,
  0x65, 0x6e, 0x73, 0x65, 0x2f, 0x4d, 0x61, 0x74, 0x4d, 0x75, 0x6c, 0x00,
  0x02, 0x00, 0x00, 0x00, 0x0a, 0x00, 0x00, 0x00, 0x02, 0x00, 0x00, 0x00,
  0x5a, 0xff, 0xff, 0xff, 0x00, 0x00, 0x00, 0x01, 0x10, 0x00, 0x00, 0x00,
  0x10, 0x00, 0x00, 0x00, 0x04, 0x00, 0x00, 0x00, 0x34, 0x00, 0x00, 0x00,
  0xc8, 0xfe, 0xff, 0xff, 0x27, 0x00, 0x00, 0x00, 0x73, 0x65, 0x71, 0x75,
  0x65, 0x6e, 0x74, 0x69, 0x61, 0x6c, 0x2f, 0x64, 0x65, 0x6e, 0x73, 0x65,
  0x2f, 0x42, 0x69, 0x61, 0x73, 0x41, 0x64, 0x64, 0x2f, 0x52, 0x65, 0x61,
  0x64, 0x56, 0x61, 0x72, 0x69, 0x61, 0x62, 0x6c, 0x65, 0x4f, 0x70, 0x00,
  0x01, 0x00, 0x00, 0x00, 0x0a, 0x00, 0x00, 0x00, 0xaa, 0xff, 0xff, 0xff,
  0x00, 0x00, 0x00, 0x01, 0x10, 0x00, 0x00, 0x00, 0x10, 0x00, 0x00, 0x00,
  0x03, 0x00, 0x00, 0x00, 0x38, 0x00, 0x00, 0x00, 0x18, 0xff, 0xff, 0xff,
  0x29, 0x00, 0x00, 0x00, 0x73, 0x65, 0x71, 0x75, 0x65, 0x6e, 0x74, 0x69,
  0x61, 0x6c, 0x2f, 0x64, 0x65, 0x6e, 0x73, 0x65, 0x5f, 0x32, 0x2f, 0x42,
  0x69, 0x61, 0x73, 0x41, 0x64, 0x64, 0x2f, 0x52, 0x65, 0x61, 0x64, 0x56,
  0x61, 0x72, 0x69, 0x61, 0x62, 0x6c, 0x65, 0x4f, 0x70, 0x00, 0x00, 0x00,
  0x01, 0x00, 0x00, 0x00, 0x0a, 0x00, 0x00, 0x00, 0x00, 0x00, 0x16, 0x00,
  0x18, 0x00, 0x14, 0x00, 0x00, 0x00, 0x10, 0x00, 0x0c, 0x00, 0x08, 0x00,
  0x00, 0x00, 0x00, 0x00, 0x00, 0x00, 0x07, 0x00, 0x16, 0x00, 0x00, 0x00,
  0x00, 0x00, 0x00, 0x01, 0x10, 0x00, 0x00, 0x00, 0x10, 0x00, 0x00, 0x00,
  0x02, 0x00, 0x00, 0x00, 0x38, 0x00, 0x00, 0x00, 0x84, 0xff, 0xff, 0xff,
  0x29, 0x00, 0x00, 0x00, 0x73, 0x65, 0x71, 0x75, 0x65, 0x6e, 0x74, 0x69,
  0x61, 0x6c, 0x2f, 0x64, 0x65, 0x6e, 0x73, 0x65, 0x5f, 0x31, 0x2f, 0x42,
  0x69, 0x61, 0x73, 0x41, 0x64, 0x64, 0x2f, 0x52, 0x65, 0x61, 0x64, 0x56,
  0x61, 0x72, 0x69, 0x61, 0x62, 0x6c, 0x65, 0x4f, 0x70, 0x00, 0x00, 0x00,
  0x01, 0x00, 0x00, 0x00, 0x14, 0x00, 0x00, 0x00, 0x00, 0x00, 0x16, 0x00,
  0x1c, 0x00, 0x18, 0x00, 0x00, 0x00, 0x14, 0x00, 0x10, 0x00, 0x0c, 0x00,
  0x00, 0x00, 0x00, 0x00, 0x08, 0x00, 0x07, 0x00, 0x16, 0x00, 0x00, 0x00,
  0x00, 0x00, 0x00, 0x01, 0x14, 0x00, 0x00, 0x00, 0x20, 0x00, 0x00, 0x00,
  0x20, 0x00, 0x00, 0x00, 0x01, 0x00, 0x00, 0x00, 0x3c, 0x00, 0x00, 0x00,
  0x02, 0x00, 0x00, 0x00, 0xff, 0xff, 0xff, 0xff, 0x02, 0x00, 0x00, 0x00,
  0x04, 0x00, 0x04, 0x00, 0x04, 0x00, 0x00, 0x00, 0x1d, 0x00, 0x00, 0x00,
  0x73, 0x65, 0x72, 0x76, 0x69, 0x6e, 0x67, 0x5f, 0x64, 0x65, 0x66, 0x61,
  0x75, 0x6c, 0x74, 0x5f, 0x64, 0x65, 0x6e, 0x73, 0x65, 0x5f, 0x69, 0x6e,
  0x70, 0x75, 0x74, 0x3a, 0x30, 0x00, 0x00, 0x00, 0x02, 0x00, 0x00, 0x00,
  0x01, 0x00, 0x00, 0x00, 0x02, 0x00, 0x00, 0x00, 0x02, 0x00, 0x00, 0x00,
  0x20, 0x00, 0x00, 0x00, 0x04, 0x00, 0x00, 0x00, 0xf4, 0xff, 0xff, 0xff,
  0x19, 0x00, 0x00, 0x00, 0x00, 0x00, 0x00, 0x19, 0x0c, 0x00, 0x0c, 0x00,
  0x0b, 0x00, 0x00, 0x00, 0x00, 0x00, 0x04, 0x00, 0x0c, 0x00, 0x00, 0x00,
  0x09, 0x00, 0x00, 0x00, 0x00, 0x00, 0x00, 0x09
};
