const unsigned char model[] = {
  0x1c, 0x00, 0x00, 0x00, 0x54, 0x46, 0x4c, 0x33, 0x14, 0x00, 0x20, 0x00,
  0x1c, 0x00, 0x18, 0x00, 0x14, 0x00, 0x10, 0x00, 0x0c, 0x00, 0x00, 0x00,
  0x08, 0x00, 0x04, 0x00, 0x14, 0x00, 0x00, 0x00, 0x1c, 0x00, 0x00, 0x00,
  0x90, 0x00, 0x00, 0x00, 0xe8, 0x00, 0x00, 0x00, 0x2c, 0x09, 0x00, 0x00,
  0x3c, 0x09, 0x00, 0x00, 0xf8, 0x0e, 0x00, 0x00, 0x03, 0x00, 0x00, 0x00,
  0x01, 0x00, 0x00, 0x00, 0x10, 0x00, 0x00, 0x00, 0x00, 0x00, 0x0a, 0x00,
  0x10, 0x00, 0x0c, 0x00, 0x08, 0x00, 0x04, 0x00, 0x0a, 0x00, 0x00, 0x00,
  0x0c, 0x00, 0x00, 0x00, 0x1c, 0x00, 0x00, 0x00, 0x38, 0x00, 0x00, 0x00,
  0x0f, 0x00, 0x00, 0x00, 0x73, 0x65, 0x72, 0x76, 0x69, 0x6e, 0x67, 0x5f,
  0x64, 0x65, 0x66, 0x61, 0x75, 0x6c, 0x74, 0x00, 0x01, 0x00, 0x00, 0x00,
  0x04, 0x00, 0x00, 0x00, 0x98, 0xff, 0xff, 0xff, 0x0a, 0x00, 0x00, 0x00,
  0x04, 0x00, 0x00, 0x00, 0x07, 0x00, 0x00, 0x00, 0x64, 0x65, 0x6e, 0x73,
  0x65, 0x5f, 0x32, 0x00, 0x01, 0x00, 0x00, 0x00, 0x04, 0x00, 0x00, 0x00,
  0xb6, 0xf6, 0xff, 0xff, 0x04, 0x00, 0x00, 0x00, 0x0b, 0x00, 0x00, 0x00,
  0x64, 0x65, 0x6e, 0x73, 0x65, 0x5f, 0x69, 0x6e, 0x70, 0x75, 0x74, 0x00,
  0x02, 0x00, 0x00, 0x00, 0x34, 0x00, 0x00, 0x00, 0x04, 0x00, 0x00, 0x00,
  0xdc, 0xff, 0xff, 0xff, 0x0d, 0x00, 0x00, 0x00, 0x04, 0x00, 0x00, 0x00,
  0x13, 0x00, 0x00, 0x00, 0x43, 0x4f, 0x4e, 0x56, 0x45, 0x52, 0x53, 0x49,
  0x4f, 0x4e, 0x5f, 0x4d, 0x45, 0x54, 0x41, 0x44, 0x41, 0x54, 0x41, 0x00,
  0x08, 0x00, 0x0c, 0x00, 0x08, 0x00, 0x04, 0x00, 0x08, 0x00, 0x00, 0x00,
  0x0c, 0x00, 0x00, 0x00, 0x04, 0x00, 0x00, 0x00, 0x13, 0x00, 0x00, 0x00,
  0x6d, 0x69, 0x6e, 0x5f, 0x72, 0x75, 0x6e, 0x74, 0x69, 0x6d, 0x65, 0x5f,
  0x76, 0x65, 0x72, 0x73, 0x69, 0x6f, 0x6e, 0x00, 0x0e, 0x00, 0x00, 0x00,
  0x40, 0x08, 0x00, 0x00, 0x38, 0x08, 0x00, 0x00, 0xd8, 0x07, 0x00, 0x00,
  0xa0, 0x07, 0x00, 0x00, 0x68, 0x07, 0x00, 0x00, 0x08, 0x07, 0x00, 0x00,
  0xd8, 0x03, 0x00, 0x00, 0xa8, 0x00, 0x00, 0x00, 0xa0, 0x00, 0x00, 0x00,
  0x98, 0x00, 0x00, 0x00, 0x90, 0x00, 0x00, 0x00, 0x88, 0x00, 0x00, 0x00,
  0x68, 0x00, 0x00, 0x00, 0x04, 0x00, 0x00, 0x00, 0x66, 0xf7, 0xff, 0xff,
  0x04, 0x00, 0x00, 0x00, 0x54, 0x00, 0x00, 0x00, 0x0c, 0x00, 0x00, 0x00,
  0x08, 0x00, 0x0e, 0x00, 0x08, 0x00, 0x04, 0x00, 0x08, 0x00, 0x00, 0x00,
  0x10, 0x00, 0x00, 0x00, 0x24, 0x00, 0x00, 0x00, 0x00, 0x00, 0x06, 0x00,
  0x08, 0x00, 0x04, 0x00, 0x06, 0x00, 0x00, 0x00, 0x04, 0x00, 0x00, 0x00,
  0x00, 0x00, 0x00, 0x00, 0x00, 0x00, 0x0a, 0x00, 0x10, 0x00, 0x0c, 0x00,
  0x08, 0x00, 0x04, 0x00, 0x0a, 0x00, 0x00, 0x00, 0x02, 0x00, 0x00, 0x00,
  0x02, 0x00, 0x00, 0x00, 0x04, 0x00, 0x00, 0x00, 0x06, 0x00, 0x00, 0x00,
  0x32, 0x2e, 0x31, 0x31, 0x2e, 0x30, 0x00, 0x00, 0xc6, 0xf7, 0xff, 0xff,
  0x04, 0x00, 0x00, 0x00, 0x10, 0x00, 0x00, 0x00, 0x31, 0x2e, 0x35, 0x2e,
  0x30, 0x00, 0x00, 0x00, 0x00, 0x00, 0x00, 0x00, 0x00, 0x00, 0x00, 0x00,
  0xd4, 0xf2, 0xff, 0xff, 0xd8, 0xf2, 0xff, 0xff, 0xdc, 0xf2, 0xff, 0xff,
  0xe0, 0xf2, 0xff, 0xff, 0xf2, 0xf7, 0xff, 0xff, 0x04, 0x00, 0x00, 0x00,
  0x20, 0x03, 0x00, 0x00, 0x2f, 0x1e, 0x52, 0x3e, 0x3f, 0xbf, 0xaf, 0xbf,
  0x99, 0x30, 0x3c, 0x3f, 0xe4, 0xb6, 0xd8, 0x3f, 0xc9, 0xe2, 0xa8, 0xbb,
  0x38, 0x34, 0x1f, 0x3e, 0xda, 0x38, 0x72, 0xbf, 0x68, 0x10, 0x40, 0xbf,
  0x08, 0x3e, 0x33, 0x3f, 0x22, 0x6d, 0xe6, 0xbe, 0xd9, 0xb7, 0x6c, 0xbf,
  0x33, 0xa8, 0xbe, 0x3b, 0x2e, 0x0d, 0xc0, 0x3e, 0x91, 0x05, 0x70, 0x3f,
  0x2c, 0xb0, 0x33, 0x40, 0x70, 0x2d, 0xb9, 0x3e, 0x2c, 0x7d, 0xbc, 0xbe,
  0x50, 0x76, 0x23, 0x3e, 0x7c, 0x66, 0x02, 0xc0, 0xbc, 0xef, 0x95, 0xbe,
  0xb0, 0x8c, 0xfc, 0x3f, 0xbf, 0x89, 0x72, 0xc0, 0x5f, 0x2e, 0x00, 0x40,
  0xe0, 0x34, 0x06, 0x3f, 0x74, 0xd5, 0x6d, 0x3f, 0x84, 0xfa, 0x38, 0x40,
  0x4f, 0xba, 0x5d, 0xc0, 0xba, 0xb6, 0xad, 0x40, 0x25, 0xee, 0x04, 0xc0,
  0x03, 0x14, 0x8d, 0xbf, 0x64, 0x9e, 0x72, 0xbf, 0x7a, 0x70, 0x56, 0xc0,
  0xf8, 0x6f, 0x45, 0xbe, 0x9d, 0x9e, 0x38, 0x40, 0x5a, 0x65, 0x25, 0xbf,
  0xd6, 0x5f, 0x06, 0xbe, 0xca, 0x09, 0x94, 0xbe, 0x40, 0x12, 0x6c, 0x3c,
  0x3a, 0xb8, 0x0f, 0x3f, 0x5d, 0x51, 0x51, 0x40, 0x36, 0x4d, 0x7d, 0xc0,
  0xc0, 0x74, 0xae, 0x40, 0x71, 0x94, 0xab, 0x3f, 0xfe, 0x78, 0xb5, 0x3e,
  0x37, 0xe3, 0xe7, 0x3c, 0xce, 0x3c, 0x7d, 0x40, 0x11, 0x9a, 0xc3, 0x40,
  0x1b, 0x68, 0xaf, 0xbf, 0xe2, 0x47, 0x28, 0xc0, 0xd3, 0xa1, 0x8f, 0xbf,
  0x5e, 0x8e, 0x1c, 0xbf, 0xfe, 0x3d, 0xad, 0x3f, 0xc8, 0x9e, 0xd3, 0x3d,
  0xaa, 0x3f, 0xb9, 0xc0, 0xd6, 0xf0, 0x07, 0xbf, 0xd8, 0x2d, 0xcd, 0xbd,
  0xdc, 0xc5, 0x42, 0xbe, 0x45, 0xd4, 0xa7, 0xbe, 0x28, 0x7b, 0xab, 0xbf,
  0x82, 0xcb, 0xc5, 0xbf, 0x2c, 0x8c, 0x8a, 0xbf, 0x9e, 0xd5, 0x12, 0xc0,
  0x26, 0x9c, 0x6b, 0x40, 0x9f, 0x9b, 0x8a, 0xc0, 0xb9, 0x5d, 0x1b, 0xbe,
  0x34, 0xd4, 0xb4, 0x3f, 0x58, 0x94, 0xeb, 0xbf, 0x2d, 0x72, 0xcd, 0xc0,
  0x0b, 0xcc, 0x16, 0x3e, 0x1f, 0x13, 0xce, 0x3f, 0x47, 0x5e, 0xc5, 0x3d,
  0x98, 0xd1, 0x4e, 0xbe, 0x0a, 0xc7, 0x56, 0xbe, 0x90, 0x62, 0xd3, 0x3e,
  0x7b, 0x4d, 0x4a, 0x40, 0xa8, 0xa7, 0xca, 0xbe, 0xec, 0xd6, 0x6d, 0x3e,
  0xa0, 0xdd, 0x9e, 0xbc, 0x1b, 0xb2, 0xc2, 0x3f, 0xaa, 0x51, 0x47, 0xbf,
  0x1b, 0xd2, 0xc7, 0xbe, 0x0d, 0x21, 0x34, 0x3f, 0x45, 0x3a, 0x6f, 0x3f,
  0x2b, 0xab, 0x27, 0xc0, 0x86, 0x06, 0xec, 0xbf, 0x40, 0xfc, 0x42, 0xc0,
  0xfb, 0x24, 0x7b, 0x3d, 0x2b, 0x64, 0xae, 0x3e, 0x50, 0xe3, 0x23, 0x40,
  0x7a, 0x5b, 0x37, 0x40, 0x2c, 0xa9, 0x64, 0xc0, 0xce, 0xc2, 0xdf, 0x40,
  0xc0, 0xfa, 0xeb, 0x3c, 0xe3, 0x89, 0x98, 0x3f, 0xb3, 0x88, 0xf9, 0xbf,
  0x40, 0x6e, 0x61, 0x3d, 0x86, 0xbc, 0xc4, 0xbe, 0x3b, 0x64, 0xa8, 0xbe,
  0xaf, 0x89, 0xd6, 0x40, 0x5f, 0x1d, 0x87, 0xc0, 0xb4, 0x78, 0x1e, 0x3f,
  0xa6, 0x08, 0x43, 0xbe, 0x51, 0xb4, 0x3f, 0xc0, 0x4c, 0x20, 0xea, 0x3d,
  0x87, 0x3e, 0x6e, 0x3f, 0xe5, 0x66, 0x78, 0xc0, 0x3f, 0xaf, 0xb7, 0xbe,
  0xfc, 0x4f, 0x20, 0x40, 0xe8, 0x6d, 0x05, 0x3d, 0x68, 0xfe, 0xcc, 0xbf,
  0x80, 0x0a, 0x28, 0x40, 0xcc, 0x4c, 0x58, 0x3f, 0x12, 0x8f, 0x92, 0x3e,
  0x5f, 0xd9, 0x66, 0x3d, 0xd5, 0x7c, 0x2d, 0xbf, 0x94, 0x0e, 0x6c, 0x3e,
  0x18, 0x81, 0x4d, 0xbd, 0x58, 0xbe, 0x45, 0x3d, 0x20, 0x7e, 0x69, 0xc0,
  0xce, 0xfd, 0x81, 0x40, 0x44, 0xad, 0xe2, 0x3f, 0xef, 0xe5, 0x0a, 0x40,
  0x8b, 0x0d, 0xba, 0x3f, 0x28, 0x4f, 0x23, 0x40, 0xa6, 0xbd, 0xc7, 0xbe,
  0xc5, 0x05, 0x0b, 0xbf, 0xaa, 0x4a, 0xb7, 0x3f, 0x4d, 0x5a, 0x17, 0x41,
  0xb7, 0xde, 0x18, 0x40, 0xad, 0xac, 0x69, 0x3f, 0x1c, 0x04, 0xd8, 0xc0,
  0x75, 0xf4, 0x1f, 0x40, 0xb2, 0x8a, 0xa3, 0x3e, 0xf4, 0x1f, 0x32, 0x3f,
  0x78, 0x4c, 0xf7, 0x40, 0xba, 0x4b, 0x8e, 0x3e, 0x8c, 0x3c, 0x92, 0x3e,
  0xa4, 0x76, 0x7e, 0x3e, 0x85, 0xa2, 0xfb, 0xc0, 0x58, 0xc4, 0x7a, 0xc0,
  0x6a, 0xef, 0x1e, 0xbf, 0xaa, 0x83, 0x96, 0xbf, 0xc9, 0xe1, 0xa8, 0xbd,
  0x04, 0x17, 0xf0, 0xc0, 0x80, 0xf0, 0x62, 0x3c, 0x2e, 0x59, 0x90, 0x3e,
  0x29, 0xff, 0x35, 0xbf, 0x92, 0x6f, 0x63, 0xc0, 0x60, 0x33, 0xf0, 0x3f,
  0xd1, 0x51, 0x39, 0xbe, 0xbc, 0xfb, 0x57, 0x40, 0xd2, 0x1b, 0x6a, 0xc0,
  0x0b, 0x12, 0x5e, 0xbe, 0xfe, 0xf8, 0xc6, 0xbe, 0xe8, 0xee, 0x96, 0x40,
  0x94, 0x0a, 0x00, 0x3e, 0x93, 0xd8, 0xcd, 0xbe, 0x00, 0x9d, 0x76, 0x3d,
  0x94, 0x27, 0xdd, 0xbf, 0x14, 0x2e, 0x57, 0x3e, 0x97, 0xb1, 0x41, 0xbf,
  0xb3, 0xa8, 0x2e, 0xbf, 0x74, 0x36, 0x90, 0xc0, 0x08, 0x19, 0x72, 0x40,
  0x1d, 0x6d, 0xe5, 0x3e, 0x95, 0x3b, 0x94, 0x3e, 0x35, 0x53, 0x4d, 0xbf,
  0xfe, 0x23, 0x73, 0xc0, 0x3c, 0xd3, 0xed, 0x3d, 0x77, 0x45, 0x17, 0xbf,
  0xfa, 0x35, 0xbc, 0x40, 0x68, 0x9b, 0xf1, 0xbf, 0x08, 0x98, 0xe4, 0x3d,
  0x00, 0x86, 0xef, 0x3e, 0x6a, 0x13, 0x4c, 0xc0, 0x88, 0x95, 0xd3, 0x3e,
  0x08, 0x0b, 0x11, 0xbd, 0xc0, 0x59, 0xe4, 0xbc, 0x3c, 0xf9, 0x0c, 0x3e,
  0x4b, 0x12, 0x08, 0x40, 0x72, 0x76, 0xcc, 0x3f, 0xc7, 0x4b, 0x71, 0x3e,
  0xe5, 0x48, 0x6c, 0xc0, 0xbc, 0x76, 0xd8, 0x40, 0x4c, 0x91, 0xe7, 0x3e,
  0x9d, 0xf1, 0xf0, 0xbe, 0x39, 0x40, 0xe7, 0x3d, 0xbc, 0x05, 0xdb, 0xbe,
  0x35, 0x76, 0xf8, 0xbf, 0x5d, 0x03, 0xd5, 0xbf, 0xa0, 0x05, 0x5b, 0x3f,
  0x69, 0x90, 0x39, 0xc0, 0x00, 0x93, 0xbf, 0xbd, 0xa5, 0x66, 0xcd, 0x3e,
  0x5d, 0x8a, 0x30, 0xc1, 0xca, 0xd3, 0xcb, 0x3e, 0xda, 0x76, 0xa9, 0x3e,
  0x13, 0x43, 0x51, 0xbe, 0xf4, 0x3a, 0xf4, 0x40, 0xe2, 0xcb, 0x84, 0x3f,
  0x1e, 0xfb, 0xff, 0xff, 0x04, 0x00, 0x00, 0x00, 0x20, 0x03, 0x00, 0x00,
  0xdc, 0x69, 0xf1, 0x3d, 0xf0, 0xeb, 0x75, 0x3f, 0x09, 0x34, 0x1c, 0x3e,
  0xf0, 0x37, 0x92, 0x40, 0x78, 0x4b, 0x2a, 0xc0, 0xe1, 0x25, 0x03, 0xbf,
  0x99, 0x5b, 0x11, 0xbe, 0xe3, 0x3e, 0x2e, 0x3e, 0xd9, 0xe5, 0x02, 0xbd,
  0xb7, 0x03, 0xfe, 0xbf, 0xc7, 0x9e, 0x54, 0x3e, 0xce, 0x9c, 0xa1, 0x40,
  0xc5, 0xec, 0x5b, 0xbe, 0x36, 0xbe, 0x7c, 0x40, 0x60, 0x37, 0xc1, 0xc0,
  0x73, 0xe4, 0x41, 0x3f, 0x0d, 0x29, 0x5f, 0x3e, 0xfb, 0x29, 0x15, 0xbf,
  0xf1, 0x9f, 0x1c, 0x3e, 0x5e, 0x95, 0x04, 0xc0, 0x78, 0x78, 0x32, 0xbe,
  0xca, 0x5a, 0xc5, 0xbe, 0x2e, 0x89, 0x52, 0xbb, 0xb9, 0xba, 0xaf, 0x3f,
  0x9c, 0x24, 0x84, 0xbf, 0x63, 0x2e, 0xc7, 0x3e, 0xd7, 0x9c, 0x4f, 0x3c,
  0x8d, 0xf5, 0x24, 0xbd, 0xff, 0xcf, 0x91, 0x40, 0x9e, 0xad, 0x97, 0x3f,
  0xd1, 0xa5, 0x89, 0x3e, 0xec, 0xd3, 0x6a, 0x40, 0x86, 0x51, 0x2d, 0x3e,
  0xe3, 0x8f, 0xd1, 0xbe, 0xf9, 0x9d, 0x5a, 0x40, 0xb7, 0xd4, 0x9c, 0xbe,
  0x52, 0x1b, 0x82, 0x3f, 0xba, 0x03, 0x11, 0xbe, 0xfb, 0x7f, 0x7c, 0xc0,
  0xdb, 0x8e, 0x2e, 0xc0, 0x57, 0x83, 0x0f, 0x3f, 0x8f, 0x01, 0xf4, 0x3f,
  0x09, 0x77, 0x61, 0x3f, 0xed, 0xbd, 0x9d, 0x3c, 0xf4, 0x5c, 0x57, 0xbf,
  0x35, 0x44, 0xba, 0x3e, 0xd0, 0x2a, 0x18, 0xbe, 0x28, 0xc0, 0x23, 0xbe,
  0x93, 0xe9, 0x05, 0xbe, 0xb7, 0xb9, 0x22, 0xbf, 0x34, 0x16, 0xee, 0xbe,
  0x5c, 0xc2, 0x9a, 0xc0, 0xea, 0xc1, 0x41, 0xbc, 0x2a, 0x32, 0x68, 0xc0,
  0xce, 0x8b, 0x4a, 0x3d, 0x5f, 0x50, 0x23, 0x3e, 0x88, 0xdf, 0x21, 0x3f,
  0xcf, 0xd6, 0xd9, 0x3e, 0x63, 0xd7, 0x43, 0x40, 0x66, 0x94, 0xbb, 0x3f,
  0x42, 0x6f, 0x9c, 0xbd, 0xfe, 0x53, 0x97, 0x40, 0x1c, 0x49, 0x41, 0xbe,
  0xf6, 0xc0, 0x7e, 0x40, 0x2f, 0x58, 0xb9, 0xc0, 0x39, 0x7b, 0x54, 0x3f,
  0x4e, 0x97, 0x9a, 0x3d, 0x96, 0x15, 0xb9, 0x3e, 0xbd, 0x61, 0x8c, 0xbf,
  0xa3, 0x29, 0x6a, 0xbf, 0x23, 0x89, 0x1f, 0x3f, 0x7c, 0x04, 0xbd, 0xc0,
  0x28, 0xaf, 0x10, 0xbe, 0xac, 0x4f, 0x25, 0x41, 0xe8, 0x35, 0xe8, 0xc0,
  0x30, 0x46, 0xf2, 0x3e, 0x22, 0xdd, 0x53, 0x3e, 0xf7, 0xbb, 0xf1, 0x3d,
  0xc2, 0x9b, 0x56, 0xc0, 0xb1, 0x1b, 0xd3, 0x3f, 0xdd, 0xd8, 0x3d, 0x3e,
  0xc6, 0x54, 0xa3, 0x40, 0xee, 0x64, 0xd7, 0xbd, 0x6e, 0x58, 0xc5, 0xbf,
  0xa8, 0x31, 0x6e, 0xc0, 0x18, 0x51, 0x0c, 0xbe, 0x53, 0x18, 0x09, 0x3e,
  0xb1, 0x39, 0x94, 0xbd, 0x9b, 0x9b, 0xd9, 0x3f, 0x98, 0x2b, 0x26, 0xbf,
  0x24, 0x1c, 0x6b, 0x3f, 0x4e, 0x42, 0xe6, 0x3f, 0xf8, 0xa4, 0x45, 0x3d,
  0xa6, 0xc4, 0xec, 0xbe, 0x04, 0x3b, 0xd1, 0xbf, 0xe2, 0x8e, 0xd4, 0xbb,
  0xb6, 0x7a, 0xef, 0xbe, 0x4f, 0xde, 0x3a, 0xbe, 0x13, 0x9e, 0x1e, 0x40,
  0x8d, 0x60, 0xef, 0xbc, 0x42, 0x18, 0x32, 0x3e, 0x9f, 0xa9, 0x8e, 0xc0,
  0xb6, 0xb8, 0xb3, 0x3e, 0xc6, 0x7f, 0xdc, 0x40, 0x15, 0x58, 0x89, 0xbf,
  0x29, 0x4b, 0x11, 0x3e, 0x2d, 0x47, 0xd0, 0x3e, 0x17, 0x52, 0x7c, 0xbf,
  0x8b, 0xb4, 0x38, 0x40, 0x88, 0xf2, 0x51, 0x40, 0x05, 0xe8, 0xb1, 0xbe,
  0x2b, 0xe2, 0xef, 0xc0, 0xd6, 0xfb, 0x90, 0xbe, 0x97, 0xf9, 0x6f, 0x40,
  0x38, 0xef, 0x9a, 0xc0, 0x4a, 0x9c, 0xc6, 0xbe, 0xf7, 0xa2, 0xc3, 0x3e,
  0xa0, 0x3f, 0x1b, 0xbf, 0x07, 0x2e, 0x22, 0x3f, 0xbe, 0x26, 0x10, 0x40,
  0x7d, 0x47, 0x22, 0x3f, 0x6c, 0x60, 0x71, 0xbf, 0x9e, 0x98, 0x5b, 0xbf,
  0x62, 0xa6, 0xb0, 0x3c, 0xe6, 0xcb, 0xe0, 0xbd, 0x62, 0x97, 0x55, 0x3e,
  0x0b, 0x93, 0xd0, 0x3d, 0xa6, 0x86, 0x0d, 0xbf, 0xc3, 0x9a, 0x0d, 0xbf,
  0xbf, 0x96, 0x01, 0xbd, 0x07, 0x67, 0x6a, 0xbc, 0x90, 0xdc, 0x9a, 0x40,
  0x90, 0xf8, 0xa9, 0x3c, 0xb8, 0x2a, 0xca, 0x3c, 0x4f, 0x6e, 0x17, 0xc0,
  0xbb, 0xfd, 0x76, 0xbf, 0x7c, 0x24, 0xdd, 0xbd, 0xc5, 0xfe, 0xac, 0x3e,
  0xd1, 0x8c, 0x60, 0x3f, 0xab, 0xe9, 0x5f, 0xbf, 0xb1, 0x24, 0x59, 0x3f,
  0x4a, 0x11, 0x83, 0x3f, 0x42, 0x6b, 0xb5, 0xbe, 0x6c, 0x27, 0x6a, 0x40,
  0x1a, 0x97, 0xd6, 0x40, 0x63, 0xf7, 0x02, 0x3f, 0x51, 0xce, 0xd8, 0x3e,
  0xa5, 0x2c, 0xd1, 0x3c, 0x93, 0x73, 0xb0, 0xc0, 0x6c, 0x75, 0x60, 0xc0,
  0x48, 0x53, 0x69, 0xbe, 0x6d, 0x7e, 0x5b, 0xbe, 0x73, 0x45, 0xa5, 0xbe,
  0x25, 0x76, 0xc3, 0x3d, 0x3f, 0xa3, 0xfa, 0xbd, 0xed, 0x9e, 0xc6, 0xbe,
  0x82, 0x1d, 0x0a, 0x3c, 0x40, 0x08, 0x4e, 0x3e, 0x8b, 0xbd, 0xcb, 0xbd,
  0xe1, 0x9a, 0x41, 0xbf, 0x72, 0xbf, 0x1b, 0x3c, 0x15, 0x29, 0x96, 0xbe,
  0x4f, 0x1d, 0x4e, 0x3f, 0x1d, 0x00, 0x1a, 0xbf, 0x6f, 0x73, 0x9a, 0x3e,
  0x77, 0xe3, 0x50, 0xbe, 0xfa, 0x93, 0x3f, 0xbe, 0xee, 0x36, 0x9a, 0x3e,
  0xb2, 0x6f, 0x3b, 0xbf, 0xe5, 0x00, 0x4d, 0xbe, 0x5b, 0xb2, 0x35, 0x3d,
  0x48, 0xa7, 0x37, 0xbf, 0xb9, 0xaf, 0xc7, 0x3e, 0xca, 0x31, 0xc4, 0xbd,
  0xc8, 0x50, 0x30, 0x3e, 0x0e, 0xfc, 0xb7, 0x3d, 0x4a, 0x91, 0x04, 0xbf,
  0x25, 0x7e, 0x8f, 0xbe, 0xe5, 0x7b, 0x35, 0x3d, 0x90, 0xe9, 0x36, 0xbe,
  0xa7, 0x8c, 0xce, 0x3e, 0x0e, 0x93, 0x3d, 0x40, 0xfe, 0xc0, 0x07, 0x3f,
  0x33, 0x87, 0x7b, 0x40, 0x2d, 0x38, 0x52, 0x40, 0x4d, 0x34, 0x0e, 0x3f,
  0xd0, 0x58, 0x08, 0x3f, 0xdd, 0xf8, 0x52, 0xbf, 0x83, 0x65, 0xc7, 0xc0,
  0xee, 0x1a, 0xe4, 0x3f, 0x49, 0xc7, 0x72, 0x3f, 0x88, 0xaf, 0xfa, 0x40,
  0x61, 0x63, 0x21, 0xbf, 0x68, 0xf4, 0x98, 0xbf, 0x77, 0x26, 0xfb, 0xbf,
  0x15, 0x87, 0x43, 0x3d, 0x27, 0x72, 0x09, 0xbe, 0x50, 0xf4, 0x32, 0xbe,
  0x49, 0xb8, 0xc2, 0xbf, 0x48, 0x54, 0x2d, 0xbf, 0x4a, 0xfe, 0xff, 0xff,
  0x04, 0x00, 0x00, 0x00, 0x50, 0x00, 0x00, 0x00, 0x3d, 0xaf, 0x40, 0xbf,
  0x88, 0xac, 0xb9, 0xbf, 0x52, 0x63, 0x92, 0xbf, 0x9c, 0x97, 0x2f, 0x41,
  0x3d, 0x9c, 0x81, 0xbe, 0x09, 0x58, 0xb2, 0xbf, 0xa3, 0x87, 0x27, 0x41,
  0x4a, 0xb9, 0xd3, 0xc0, 0x92, 0xea, 0x3e, 0x41, 0xda, 0x7c, 0x3e, 0x40,
  0xc6, 0xdf, 0x21, 0x3e, 0x20, 0x66, 0x5a, 0xbf, 0x29, 0x44, 0xfe, 0xbe,
  0xd7, 0x54, 0xc5, 0xbd, 0x9b, 0xea, 0x3e, 0x3d, 0xae, 0xd7, 0x08, 0xbf,
  0x96, 0x82, 0xf6, 0xc0, 0x3c, 0x6f, 0xff, 0x3f, 0xc7, 0x7a, 0x42, 0xc0,
  0xbe, 0xf3, 0x90, 0xc0, 0xa6, 0xfe, 0xff, 0xff, 0x04, 0x00, 0x00, 0x00,
  0x28, 0x00, 0x00, 0x00, 0x00, 0x00, 0x00, 0x00, 0x7d, 0x35, 0x04, 0xbf,
  0x00, 0x00, 0x00, 0x00, 0x3c, 0x07, 0x01, 0x40, 0x9c, 0xb9, 0x86, 0xc0,
  0xdb, 0xb6, 0x33, 0xbd, 0x00, 0x00, 0x00, 0x00, 0x8f, 0x3a, 0xbf, 0xbc,
  0xb8, 0x63, 0x9b, 0x40, 0xf8, 0xa5, 0xb5, 0x40, 0xda, 0xfe, 0xff, 0xff,
  0x04, 0x00, 0x00, 0x00, 0x28, 0x00, 0x00, 0x00, 0x0d, 0x58, 0xc4, 0xbf,
  0x7d, 0x3e, 0xeb, 0x3e, 0x84, 0x0b, 0xf4, 0x3e, 0x75, 0xb8, 0x8a, 0x3f,
  0xde, 0xa8, 0x92, 0x3e, 0x09, 0x74, 0x2f, 0xbe, 0x85, 0xd8, 0x64, 0x3f,
  0x80, 0x99, 0x89, 0x3d, 0x74, 0x49, 0x5e, 0xbf, 0x50, 0xa1, 0x31, 0xbf,
  0x0e, 0xff, 0xff, 0xff, 0x04, 0x00, 0x00, 0x00, 0x50, 0x00, 0x00, 0x00,
  0xd9, 0xc8, 0x1e, 0x3f, 0xdb, 0xdd, 0x61, 0x3f, 0xfd, 0xf1, 0xeb, 0x3f,
  0x63, 0xd4, 0xb5, 0xbf, 0xc6, 0xb9, 0x1b, 0x3d, 0x1e, 0x06, 0x06, 0xbe,
  0x07, 0xb9, 0xd2, 0x3e, 0x82, 0xb3, 0xc1, 0x3e, 0xdc, 0xfc, 0x34, 0x3f,
  0x93, 0xcd, 0xf9, 0x3f, 0xa4, 0xbd, 0xd5, 0x3f, 0xf0, 0x08, 0x3e, 0x3f,
  0x00, 0x00, 0x00, 0x00, 0xcd, 0xa8, 0x62, 0xbd, 0x6e, 0x46, 0xc9, 0xbf,
  0x00, 0x00, 0x00, 0x00, 0x00, 0x00, 0x00, 0x00, 0x00, 0x00, 0x00, 0x00,
  0x84, 0x13, 0xd2, 0xbf, 0x17, 0x11, 0xbd, 0xbe, 0x5c, 0xfa, 0xff, 0xff,
  0x60, 0xfa, 0xff, 0xff, 0x0f, 0x00, 0x00, 0x00, 0x4d, 0x4c, 0x49, 0x52,
  0x20, 0x43, 0x6f, 0x6e, 0x76, 0x65, 0x72, 0x74, 0x65, 0x64, 0x2e, 0x00,
  0x01, 0x00, 0x00, 0x00, 0x14, 0x00, 0x00, 0x00, 0x00, 0x00, 0x0e, 0x00,
  0x18, 0x00, 0x14, 0x00, 0x10, 0x00, 0x0c, 0x00, 0x08, 0x00, 0x04, 0x00,
  0x0e, 0x00, 0x00, 0x00, 0x14, 0x00, 0x00, 0x00, 0x1c, 0x00, 0x00, 0x00,
  0x24, 0x01, 0x00, 0x00, 0x28, 0x01, 0x00, 0x00, 0x2c, 0x01, 0x00, 0x00,
  0x04, 0x00, 0x00, 0x00, 0x6d, 0x61, 0x69, 0x6e, 0x00, 0x00, 0x00, 0x00,
  0x04, 0x00, 0x00, 0x00, 0xcc, 0x00, 0x00, 0x00, 0x84, 0x00, 0x00, 0x00,
  0x50, 0x00, 0x00, 0x00, 0x14, 0x00, 0x00, 0x00, 0x00, 0x00, 0x0e, 0x00,
  0x1a, 0x00, 0x14, 0x00, 0x10, 0x00, 0x0c, 0x00, 0x0b, 0x00, 0x04, 0x00,
  0x0e, 0x00, 0x00, 0x00, 0x1c, 0x00, 0x00, 0x00, 0x00, 0x00, 0x00, 0x09,
  0x1c, 0x00, 0x00, 0x00, 0x20, 0x00, 0x00, 0x00, 0x01, 0x00, 0x00, 0x00,
  0x00, 0x00, 0x06, 0x00, 0x08, 0x00, 0x04, 0x00, 0x06, 0x00, 0x00, 0x00,
  0x00, 0x00, 0x80, 0x3f, 0x01, 0x00, 0x00, 0x00, 0x0a, 0x00, 0x00, 0x00,
  0x01, 0x00, 0x00, 0x00, 0x09, 0x00, 0x00, 0x00, 0x9a, 0xff, 0xff, 0xff,
  0x10, 0x00, 0x00, 0x00, 0x00, 0x00, 0x00, 0x08, 0x0c, 0x00, 0x00, 0x00,
  0x10, 0x00, 0x00, 0x00, 0x24, 0xfb, 0xff, 0xff, 0x01, 0x00, 0x00, 0x00,
  0x09, 0x00, 0x00, 0x00, 0x03, 0x00, 0x00, 0x00, 0x08, 0x00, 0x00, 0x00,
  0x06, 0x00, 0x00, 0x00, 0x02, 0x00, 0x00, 0x00, 0xca, 0xff, 0xff, 0xff,
  0x10, 0x00, 0x00, 0x00, 0x00, 0x00, 0x00, 0x08, 0x10, 0x00, 0x00, 0x00,
  0x14, 0x00, 0x00, 0x00, 0xba, 0xff, 0xff, 0xff, 0x00, 0x00, 0x00, 0x01,
  0x01, 0x00, 0x00, 0x00, 0x08, 0x00, 0x00, 0x00, 0x03, 0x00, 0x00, 0x00,
  0x07, 0x00, 0x00, 0x00, 0x05, 0x00, 0x00, 0x00, 0x01, 0x00, 0x00, 0x00,
  0x00, 0x00, 0x0e, 0x00, 0x16, 0x00, 0x00, 0x00, 0x10, 0x00, 0x0c, 0x00,
  0x0b, 0x00, 0x04, 0x00, 0x0e, 0x00, 0x00, 0x00, 0x18, 0x00, 0x00, 0x00,
  0x00, 0x00, 0x00, 0x08, 0x18, 0x00, 0x00, 0x00, 0x1c, 0x00, 0x00, 0x00,
  0x00, 0x00, 0x06, 0x00, 0x08, 0x00, 0x07, 0x00, 0x06, 0x00, 0x00, 0x00,
  0x00, 0x00, 0x00, 0x01, 0x01, 0x00, 0x00, 0x00, 0x07, 0x00, 0x00, 0x00,
  0x03, 0x00, 0x00, 0x00, 0x00, 0x00, 0x00, 0x00, 0x04, 0x00, 0x00, 0x00,
  0x03, 0x00, 0x00, 0x00, 0x01, 0x00, 0x00, 0x00, 0x0a, 0x00, 0x00, 0x00,
  0x01, 0x00, 0x00, 0x00, 0x00, 0x00, 0x00, 0x00, 0x0b, 0x00, 0x00, 0x00,
  0x04, 0x04, 0x00, 0x00, 0x94, 0x03, 0x00, 0x00, 0x24, 0x03, 0x00, 0x00,
  0xd0, 0x02, 0x00, 0x00, 0x88, 0x02, 0x00, 0x00, 0x3c, 0x02, 0x00, 0x00,
  0xf0, 0x01, 0x00, 0x00, 0x68, 0x01, 0x00, 0x00, 0xd8, 0x00, 0x00, 0x00,
  0x60, 0x00, 0x00, 0x00, 0x04, 0x00, 0x00, 0x00, 0x3e, 0xfc, 0xff, 0xff,
  0x00, 0x00, 0x00, 0x01, 0x14, 0x00, 0x00, 0x00, 0x1c, 0x00, 0x00, 0x00,
  0x1c, 0x00, 0x00, 0x00, 0x0b, 0x00, 0x00, 0x00, 0x34, 0x00, 0x00, 0x00,
  0x02, 0x00, 0x00, 0x00, 0xff, 0xff, 0xff, 0xff, 0x0a, 0x00, 0x00, 0x00,
  0x28, 0xfc, 0xff, 0xff, 0x19, 0x00, 0x00, 0x00, 0x53, 0x74, 0x61, 0x74,
  0x65, 0x66, 0x75, 0x6c, 0x50, 0x61, 0x72, 0x74, 0x69, 0x74, 0x69, 0x6f,
  0x6e, 0x65, 0x64, 0x43, 0x61, 0x6c, 0x6c, 0x3a, 0x30, 0x00, 0x00, 0x00,
  0x02, 0x00, 0x00, 0x00, 0x01, 0x00, 0x00, 0x00, 0x0a, 0x00, 0x00, 0x00,
  0x96, 0xfc, 0xff, 0xff, 0x00, 0x00, 0x00, 0x01, 0x14, 0x00, 0x00, 0x00,
  0x1c, 0x00, 0x00, 0x00, 0x1c, 0x00, 0x00, 0x00, 0x0a, 0x00, 0x00, 0x00,
  0x50, 0x00, 0x00, 0x00, 0x02, 0x00, 0x00, 0x00, 0xff, 0xff, 0xff, 0xff,
  0x0a, 0x00, 0x00, 0x00, 0x80, 0xfc, 0xff, 0xff, 0x34, 0x00, 0x00, 0x00,
  0x73, 0x65, 0x71, 0x75, 0x65, 0x6e, 0x74, 0x69, 0x61, 0x6c, 0x2f, 0x64,
  0x65, 0x6e, 0x73, 0x65, 0x5f, 0x32, 0x2f, 0x4d, 0x61, 0x74, 0x4d, 0x75,
  0x6c, 0x3b, 0x73, 0x65, 0x71, 0x75, 0x65, 0x6e, 0x74, 0x69, 0x61, 0x6c,
  0x2f, 0x64, 0x65, 0x6e, 0x73, 0x65, 0x5f, 0x32, 0x2f, 0x42, 0x69, 0x61,
  0x73, 0x41, 0x64, 0x64, 0x00, 0x00, 0x00, 0x00, 0x02, 0x00, 0x00, 0x00,
  0x01, 0x00, 0x00, 0x00, 0x0a, 0x00, 0x00, 0x00, 0x0a, 0xfd, 0xff, 0xff,
  0x00, 0x00, 0x00, 0x01, 0x14, 0x00, 0x00, 0x00, 0x1c, 0x00, 0x00, 0x00,
  0x1c, 0x00, 0x00, 0x00, 0x09, 0x00, 0x00, 0x00, 0x68, 0x00, 0x00, 0x00,
  0x02, 0x00, 0x00, 0x00, 0xff, 0xff, 0xff, 0xff, 0x14, 0x00, 0x00, 0x00,
  0xf4, 0xfc, 0xff, 0xff, 0x4c, 0x00, 0x00, 0x00, 0x73, 0x65, 0x71, 0x75,
  0x65, 0x6e, 0x74, 0x69, 0x61, 0x6c, 0x2f, 0x64, 0x65, 0x6e, 0x73, 0x65,
  0x5f, 0x31, 0x2f, 0x4d, 0x61, 0x74, 0x4d, 0x75, 0x6c, 0x3b, 0x73, 0x65,
  0x71, 0x75, 0x65, 0x6e, 0x74, 0x69, 0x61, 0x6c, 0x2f, 0x64, 0x65, 0x6e,
  0x73, 0x65, 0x5f, 0x31, 0x2f, 0x52, 0x65, 0x6c, 0x75, 0x3b, 0x73, 0x65,
  0x71, 0x75, 0x65, 0x6e, 0x74, 0x69, 0x61, 0x6c, 0x2f, 0x64, 0x65, 0x6e,
  0x73, 0x65, 0x5f, 0x31, 0x2f, 0x42, 0x69, 0x61, 0x73, 0x41, 0x64, 0x64,
  0x00, 0x00, 0x00, 0x00, 0x02, 0x00, 0x00, 0x00, 0x01, 0x00, 0x00, 0x00,
  0x14, 0x00, 0x00, 0x00, 0x96, 0xfd, 0xff, 0xff, 0x00, 0x00, 0x00, 0x01,
  0x14, 0x00, 0x00, 0x00, 0x1c, 0x00, 0x00, 0x00, 0x1c, 0x00, 0x00, 0x00,
  0x08, 0x00, 0x00, 0x00, 0x60, 0x00, 0x00, 0x00, 0x02, 0x00, 0x00, 0x00,
  0xff, 0xff, 0xff, 0xff, 0x0a, 0x00, 0x00, 0x00, 0x80, 0xfd, 0xff, 0xff,
  0x46, 0x00, 0x00, 0x00, 0x73, 0x65, 0x71, 0x75, 0x65, 0x6e, 0x74, 0x69,
  0x61, 0x6c, 0x2f, 0x64, 0x65, 0x6e, 0x73, 0x65, 0x2f, 0x4d, 0x61, 0x74,
  0x4d, 0x75, 0x6c, 0x3b, 0x73, 0x65, 0x71, 0x75, 0x65, 0x6e, 0x74, 0x69,
  0x61, 0x6c, 0x2f, 0x64, 0x65, 0x6e, 0x73, 0x65, 0x2f, 0x52, 0x65, 0x6c,
  0x75, 0x3b, 0x73, 0x65, 0x71, 0x75, 0x65, 0x6e, 0x74, 0x69, 0x61, 0x6c,
  0x2f, 0x64, 0x65, 0x6e, 0x73, 0x65, 0x2f, 0x42, 0x69, 0x61, 0x73, 0x41,
  0x64, 0x64, 0x00, 0x00, 0x02, 0x00, 0x00, 0x00, 0x01, 0x00, 0x00, 0x00,
  0x0a, 0x00, 0x00, 0x00, 0x86, 0xfe, 0xff, 0xff, 0x00, 0x00, 0x00, 0x01,
  0x10, 0x00, 0x00, 0x00, 0x10, 0x00, 0x00, 0x00, 0x07, 0x00, 0x00, 0x00,
  0x28, 0x00, 0x00, 0x00, 0xf4, 0xfd, 0xff, 0xff, 0x19, 0x00, 0x00, 0x00,
  0x73, 0x65, 0x71, 0x75, 0x65, 0x6e, 0x74, 0x69, 0x61, 0x6c, 0x2f, 0x64,
  0x65, 0x6e, 0x73, 0x65, 0x5f, 0x32, 0x2f, 0x4d, 0x61, 0x74, 0x4d, 0x75,
  0x6c, 0x00, 0x00, 0x00, 0x02, 0x00, 0x00, 0x00, 0x0a, 0x00, 0x00, 0x00,
  0x14, 0x00, 0x00, 0x00, 0xce, 0xfe, 0xff, 0xff, 0x00, 0x00, 0x00, 0x01,
  0x10, 0x00, 0x00, 0x00, 0x10, 0x00, 0x00, 0x00, 0x06, 0x00, 0x00, 0x00,
  0x28, 0x00, 0x00, 0x00, 0x3c, 0xfe, 0xff, 0xff, 0x19, 0x00, 0x00, 0x00,
  0x73, 0x65, 0x71, 0x75, 0x65, 0x6e, 0x74, 0x69, 0x61, 0x6c, 0x2f, 0x64,
  0x65, 0x6e, 0x73, 0x65, 0x5f, 0x31, 0x2f, 0x4d, 0x61, 0x74, 0x4d, 0x75,
  0x6c, 0x00, 0x00, 0x00, 0x02, 0x00, 0x00, 0x00, 0x14, 0x00, 0x00, 0x00,
  0x0a, 0x00, 0x00, 0x00, 0x16, 0xff, 0xff, 0xff, 0x00, 0x00, 0x00, 0x01,
  0x10, 0x00, 0x00, 0x00, 0x10, 0x00, 0x00, 0x00, 0x05, 0x00, 0x00, 0x00,
  0x24, 0x00, 0x00, 0x00, 0x84, 0xfe, 0xff, 0xff, 0x17, 0x00, 0x00, 0x00,
  0x73, 0x65, 0x71, 0x75, 0x65, 0x6e, 0x74, 0x69, 0x61, 0x6c, 0x2f, 0x64,
  0x65, 0x6e, 0x73, 0x65, 0x2f, 0x4d, 0x61, 0x74, 0x4d, 0x75, 0x6c, 0x00,
  0x02, 0x00, 0x00, 0x00, 0x0a, 0x00, 0x00, 0x00, 0x02, 0x00, 0x00, 0x00,
  0x5a, 0xff, 0xff, 0xff, 0x00, 0x00, 0x00, 0x01, 0x10, 0x00, 0x00, 0x00,
  0x10, 0x00, 0x00, 0x00, 0x04, 0x00, 0x00, 0x00, 0x34, 0x00, 0x00, 0x00,
  0xc8, 0xfe, 0xff, 0xff, 0x27, 0x00, 0x00, 0x00, 0x73, 0x65, 0x71, 0x75,
  0x65, 0x6e, 0x74, 0x69, 0x61, 0x6c, 0x2f, 0x64, 0x65, 0x6e, 0x73, 0x65,
  0x2f, 0x42, 0x69, 0x61, 0x73, 0x41, 0x64, 0x64, 0x2f, 0x52, 0x65, 0x61,
  0x64, 0x56, 0x61, 0x72, 0x69, 0x61, 0x62, 0x6c, 0x65, 0x4f, 0x70, 0x00,
  0x01, 0x00, 0x00, 0x00, 0x0a, 0x00, 0x00, 0x00, 0xaa, 0xff, 0xff, 0xff,
  0x00, 0x00, 0x00, 0x01, 0x10, 0x00, 0x00, 0x00, 0x10, 0x00, 0x00, 0x00,
  0x03, 0x00, 0x00, 0x00, 0x38, 0x00, 0x00, 0x00, 0x18, 0xff, 0xff, 0xff,
  0x29, 0x00, 0x00, 0x00, 0x73, 0x65, 0x71, 0x75, 0x65, 0x6e, 0x74, 0x69,
  0x61, 0x6c, 0x2f, 0x64, 0x65, 0x6e, 0x73, 0x65, 0x5f, 0x32, 0x2f, 0x42,
  0x69, 0x61, 0x73, 0x41, 0x64, 0x64, 0x2f, 0x52, 0x65, 0x61, 0x64, 0x56,
  0x61, 0x72, 0x69, 0x61, 0x62, 0x6c, 0x65, 0x4f, 0x70, 0x00, 0x00, 0x00,
  0x01, 0x00, 0x00, 0x00, 0x0a, 0x00, 0x00, 0x00, 0x00, 0x00, 0x16, 0x00,
  0x18, 0x00, 0x14, 0x00, 0x00, 0x00, 0x10, 0x00, 0x0c, 0x00, 0x08, 0x00,
  0x00, 0x00, 0x00, 0x00, 0x00, 0x00, 0x07, 0x00, 0x16, 0x00, 0x00, 0x00,
  0x00, 0x00, 0x00, 0x01, 0x10, 0x00, 0x00, 0x00, 0x10, 0x00, 0x00, 0x00,
  0x02, 0x00, 0x00, 0x00, 0x38, 0x00, 0x00, 0x00, 0x84, 0xff, 0xff, 0xff,
  0x29, 0x00, 0x00, 0x00, 0x73, 0x65, 0x71, 0x75, 0x65, 0x6e, 0x74, 0x69,
  0x61, 0x6c, 0x2f, 0x64, 0x65, 0x6e, 0x73, 0x65, 0x5f, 0x31, 0x2f, 0x42,
  0x69, 0x61, 0x73, 0x41, 0x64, 0x64, 0x2f, 0x52, 0x65, 0x61, 0x64, 0x56,
  0x61, 0x72, 0x69, 0x61, 0x62, 0x6c, 0x65, 0x4f, 0x70, 0x00, 0x00, 0x00,
  0x01, 0x00, 0x00, 0x00, 0x14, 0x00, 0x00, 0x00, 0x00, 0x00, 0x16, 0x00,
  0x1c, 0x00, 0x18, 0x00, 0x00, 0x00, 0x14, 0x00, 0x10, 0x00, 0x0c, 0x00,
  0x00, 0x00, 0x00, 0x00, 0x08, 0x00, 0x07, 0x00, 0x16, 0x00, 0x00, 0x00,
  0x00, 0x00, 0x00, 0x01, 0x14, 0x00, 0x00, 0x00, 0x20, 0x00, 0x00, 0x00,
  0x20, 0x00, 0x00, 0x00, 0x01, 0x00, 0x00, 0x00, 0x3c, 0x00, 0x00, 0x00,
  0x02, 0x00, 0x00, 0x00, 0xff, 0xff, 0xff, 0xff, 0x02, 0x00, 0x00, 0x00,
  0x04, 0x00, 0x04, 0x00, 0x04, 0x00, 0x00, 0x00, 0x1d, 0x00, 0x00, 0x00,
  0x73, 0x65, 0x72, 0x76, 0x69, 0x6e, 0x67, 0x5f, 0x64, 0x65, 0x66, 0x61,
  0x75, 0x6c, 0x74, 0x5f, 0x64, 0x65, 0x6e, 0x73, 0x65, 0x5f, 0x69, 0x6e,
  0x70, 0x75, 0x74, 0x3a, 0x30, 0x00, 0x00, 0x00, 0x02, 0x00, 0x00, 0x00,
  0x01, 0x00, 0x00, 0x00, 0x02, 0x00, 0x00, 0x00, 0x02, 0x00, 0x00, 0x00,
  0x20, 0x00, 0x00, 0x00, 0x04, 0x00, 0x00, 0x00, 0xf4, 0xff, 0xff, 0xff,
  0x19, 0x00, 0x00, 0x00, 0x00, 0x00, 0x00, 0x19, 0x0c, 0x00, 0x0c, 0x00,
  0x0b, 0x00, 0x00, 0x00, 0x00, 0x00, 0x04, 0x00, 0x0c, 0x00, 0x00, 0x00,
  0x09, 0x00, 0x00, 0x00, 0x00, 0x00, 0x00, 0x09
};
