const unsigned char model[] = {
  0x1c, 0x00, 0x00, 0x00, 0x54, 0x46, 0x4c, 0x33, 0x14, 0x00, 0x20, 0x00,
  0x1c, 0x00, 0x18, 0x00, 0x14, 0x00, 0x10, 0x00, 0x0c, 0x00, 0x00, 0x00,
  0x08, 0x00, 0x04, 0x00, 0x14, 0x00, 0x00, 0x00, 0x1c, 0x00, 0x00, 0x00,
  0x98, 0x00, 0x00, 0x00, 0xf0, 0x00, 0x00, 0x00, 0x94, 0x06, 0x00, 0x00,
  0xa4, 0x06, 0x00, 0x00, 0xa0, 0x0c, 0x00, 0x00, 0x03, 0x00, 0x00, 0x00,
  0x01, 0x00, 0x00, 0x00, 0x10, 0x00, 0x00, 0x00, 0x00, 0x00, 0x0a, 0x00,
  0x10, 0x00, 0x0c, 0x00, 0x08, 0x00, 0x04, 0x00, 0x0a, 0x00, 0x00, 0x00,
  0x0c, 0x00, 0x00, 0x00, 0x1c, 0x00, 0x00, 0x00, 0x3c, 0x00, 0x00, 0x00,
  0x0f, 0x00, 0x00, 0x00, 0x73, 0x65, 0x72, 0x76, 0x69, 0x6e, 0x67, 0x5f,
  0x64, 0x65, 0x66, 0x61, 0x75, 0x6c, 0x74, 0x00, 0x01, 0x00, 0x00, 0x00,
  0x04, 0x00, 0x00, 0x00, 0x90, 0xff, 0xff, 0xff, 0x0a, 0x00, 0x00, 0x00,
  0x04, 0x00, 0x00, 0x00, 0x08, 0x00, 0x00, 0x00, 0x64, 0x65, 0x6e, 0x73,
  0x65, 0x5f, 0x31, 0x34, 0x00, 0x00, 0x00, 0x00, 0x01, 0x00, 0x00, 0x00,
  0x04, 0x00, 0x00, 0x00, 0x52, 0xf9, 0xff, 0xff, 0x04, 0x00, 0x00, 0x00,
  0x0e, 0x00, 0x00, 0x00, 0x64, 0x65, 0x6e, 0x73, 0x65, 0x5f, 0x31, 0x32,
  0x5f, 0x69, 0x6e, 0x70, 0x75, 0x74, 0x00, 0x00, 0x02, 0x00, 0x00, 0x00,
  0x34, 0x00, 0x00, 0x00, 0x04, 0x00, 0x00, 0x00, 0xdc, 0xff, 0xff, 0xff,
  0x0d, 0x00, 0x00, 0x00, 0x04, 0x00, 0x00, 0x00, 0x13, 0x00, 0x00, 0x00,
  0x43, 0x4f, 0x4e, 0x56, 0x45, 0x52, 0x53, 0x49, 0x4f, 0x4e, 0x5f, 0x4d,
  0x45, 0x54, 0x41, 0x44, 0x41, 0x54, 0x41, 0x00, 0x08, 0x00, 0x0c, 0x00,
  0x08, 0x00, 0x04, 0x00, 0x08, 0x00, 0x00, 0x00, 0x0c, 0x00, 0x00, 0x00,
  0x04, 0x00, 0x00, 0x00, 0x13, 0x00, 0x00, 0x00, 0x6d, 0x69, 0x6e, 0x5f,
  0x72, 0x75, 0x6e, 0x74, 0x69, 0x6d, 0x65, 0x5f, 0x76, 0x65, 0x72, 0x73,
  0x69, 0x6f, 0x6e, 0x00, 0x0e, 0x00, 0x00, 0x00, 0xa0, 0x05, 0x00, 0x00,
  0x98, 0x05, 0x00, 0x00, 0x80, 0x05, 0x00, 0x00, 0x20, 0x05, 0x00, 0x00,
  0xe8, 0x04, 0x00, 0x00, 0x88, 0x04, 0x00, 0x00, 0x58, 0x01, 0x00, 0x00,
  0xa8, 0x00, 0x00, 0x00, 0xa0, 0x00, 0x00, 0x00, 0x98, 0x00, 0x00, 0x00,
  0x90, 0x00, 0x00, 0x00, 0x88, 0x00, 0x00, 0x00, 0x68, 0x00, 0x00, 0x00,
  0x04, 0x00, 0x00, 0x00, 0x06, 0xfa, 0xff, 0xff, 0x04, 0x00, 0x00, 0x00,
  0x54, 0x00, 0x00, 0x00, 0x0c, 0x00, 0x00, 0x00, 0x08, 0x00, 0x0e, 0x00,
  0x08, 0x00, 0x04, 0x00, 0x08, 0x00, 0x00, 0x00, 0x10, 0x00, 0x00, 0x00,
  0x24, 0x00, 0x00, 0x00, 0x00, 0x00, 0x06, 0x00, 0x08, 0x00, 0x04, 0x00,
  0x06, 0x00, 0x00, 0x00, 0x04, 0x00, 0x00, 0x00, 0x00, 0x00, 0x00, 0x00,
  0x00, 0x00, 0x0a, 0x00, 0x10, 0x00, 0x0c, 0x00, 0x08, 0x00, 0x04, 0x00,
  0x0a, 0x00, 0x00, 0x00, 0x02, 0x00, 0x00, 0x00, 0x02, 0x00, 0x00, 0x00,
  0x04, 0x00, 0x00, 0x00, 0x06, 0x00, 0x00, 0x00, 0x32, 0x2e, 0x31, 0x32,
  0x2e, 0x30, 0x00, 0x00, 0x66, 0xfa, 0xff, 0xff, 0x04, 0x00, 0x00, 0x00,
  0x10, 0x00, 0x00, 0x00, 0x31, 0x2e, 0x35, 0x2e, 0x30, 0x00, 0x00, 0x00,
  0x00, 0x00, 0x00, 0x00, 0x00, 0x00, 0x00, 0x00, 0x38, 0xf5, 0xff, 0xff,
  0x3c, 0xf5, 0xff, 0xff, 0x40, 0xf5, 0xff, 0xff, 0x44, 0xf5, 0xff, 0xff,
  0x92, 0xfa, 0xff, 0xff, 0x04, 0x00, 0x00, 0x00, 0xa0, 0x00, 0x00, 0x00,
  0x06, 0x57, 0x7c, 0x3f, 0xb4, 0x91, 0x70, 0x3e, 0xda, 0x43, 0x40, 0xbf,
  0xe7, 0x82, 0xeb, 0xbe, 0x82, 0xf5, 0x0d, 0x3e, 0x63, 0xcd, 0x03, 0x3f,
  0xe8, 0xa8, 0x26, 0x3f, 0x18, 0xb8, 0x96, 0xbf, 0xe4, 0xd5, 0x59, 0x3e,
  0x90, 0xd2, 0x85, 0x3f, 0x76, 0x17, 0xdb, 0x3e, 0x74, 0x4c, 0x03, 0x3f,
  0x20, 0xbc, 0xbe, 0x3e, 0x10, 0xc4, 0xe7, 0xbd, 0x8d, 0x23, 0x1d, 0x3f,
  0x88, 0x29, 0xf1, 0x3e, 0x56, 0xad, 0x4d, 0x3f, 0x1c, 0x7b, 0x40, 0xbf,
  0xe2, 0x2e, 0xfe, 0xbe, 0x6a, 0x91, 0xc9, 0xbd, 0x25, 0x4e, 0x3b, 0xbf,
  0x17, 0x1e, 0x72, 0xbf, 0xf6, 0x9f, 0x61, 0x3e, 0x5a, 0x7a, 0x1d, 0x3f,
  0xec, 0x58, 0x5e, 0xbf, 0xc4, 0xde, 0x7c, 0xbf, 0xf8, 0x58, 0x4a, 0xbf,
  0x04, 0x49, 0xac, 0x3f, 0xf9, 0xe5, 0xab, 0xbc, 0xeb, 0x37, 0x8f, 0xbf,
  0x68, 0xe5, 0xf4, 0x3d, 0x41, 0x68, 0x84, 0x3e, 0x84, 0xe2, 0xf8, 0x3e,
  0xb0, 0x56, 0x6e, 0x3e, 0x3f, 0xdc, 0xdb, 0xbe, 0x80, 0x74, 0xb8, 0xbe,
  0x2e, 0x0d, 0xaa, 0xbd, 0x57, 0x1f, 0x95, 0x3f, 0xfd, 0x52, 0x20, 0xbe,
  0x2b, 0x94, 0xa0, 0xbe, 0x3e, 0xfb, 0xff, 0xff, 0x04, 0x00, 0x00, 0x00,
  0x20, 0x03, 0x00, 0x00, 0xb2, 0x2f, 0x86, 0xbe, 0x70, 0xfc, 0x37, 0xbe,
  0x9f, 0xa3, 0xa5, 0x3e, 0xde, 0xb1, 0x1c, 0xbe, 0x08, 0x9a, 0x46, 0x3f,
  0xdd, 0x9d, 0x43, 0x3f, 0xff, 0x22, 0x9b, 0x3f, 0x1e, 0x24, 0x70, 0x3f,
  0x49, 0x6c, 0xb0, 0xbe, 0x92, 0x18, 0x84, 0x3c, 0xef, 0xdf, 0x4f, 0x3c,
  0x53, 0x75, 0xde, 0x3c, 0xc8, 0xbb, 0x02, 0x3f, 0x94, 0x06, 0x20, 0xbe,
  0x0d, 0x85, 0x17, 0x3f, 0xb3, 0xdf, 0xab, 0x3e, 0x25, 0xf9, 0x50, 0x3f,
  0x70, 0xa1, 0x9d, 0xbe, 0xbe, 0x72, 0x6d, 0x3f, 0x9d, 0x87, 0x5a, 0xbe,
  0x22, 0x6a, 0x4b, 0x3f, 0xd1, 0x20, 0x13, 0x3f, 0xb3, 0xf3, 0x9d, 0x3d,
  0x8e, 0x73, 0x5d, 0x3f, 0x09, 0x61, 0xc0, 0xbe, 0x20, 0xbe, 0x4d, 0xbe,
  0x56, 0xe6, 0xc2, 0xbe, 0xa7, 0xcc, 0xe2, 0xbe, 0x15, 0x8f, 0xa1, 0x3d,
  0x96, 0x61, 0x43, 0xbe, 0x07, 0x20, 0xba, 0x3e, 0x59, 0x22, 0xca, 0x3e,
  0xc9, 0xf7, 0xac, 0xbd, 0xe9, 0x18, 0xe8, 0x3d, 0xb0, 0x41, 0x83, 0x3e,
  0x39, 0x75, 0xa2, 0x3e, 0x24, 0xb1, 0x17, 0xbf, 0x31, 0xc2, 0x1c, 0x3f,
  0x9c, 0x15, 0x15, 0x3f, 0xe3, 0xb4, 0xdd, 0xbe, 0x44, 0x40, 0xf7, 0xbd,
  0xa2, 0x1f, 0x87, 0x3d, 0xba, 0x04, 0x13, 0x3f, 0x73, 0xa0, 0x23, 0x3f,
  0x3d, 0x7f, 0x6d, 0xbe, 0x86, 0x69, 0x23, 0xbf, 0x7e, 0x9b, 0x68, 0x3f,
  0xfb, 0x2f, 0x1b, 0x3f, 0x62, 0x80, 0x93, 0x3e, 0x4b, 0xac, 0xd1, 0xbd,
  0x50, 0xac, 0x08, 0x3e, 0x8b, 0xff, 0x5f, 0x3d, 0x56, 0xf9, 0x1a, 0x3f,
  0x37, 0xcc, 0x0e, 0xbe, 0x87, 0xa4, 0x38, 0xbf, 0x58, 0xdc, 0x6c, 0x39,
  0x17, 0xd0, 0xb0, 0x3f, 0xc6, 0x3f, 0x2d, 0x3e, 0xd5, 0x4a, 0x87, 0x3d,
  0x93, 0xfd, 0x2a, 0x3d, 0x79, 0x0a, 0x30, 0x3f, 0xb4, 0x43, 0x5c, 0xbf,
  0xe8, 0xa0, 0x76, 0x3f, 0xc2, 0x7b, 0x82, 0xbe, 0xe4, 0xe0, 0x6b, 0xbd,
  0x23, 0xb2, 0x38, 0x3f, 0x42, 0x8f, 0x0d, 0x3f, 0x34, 0x8b, 0x89, 0x3e,
  0x33, 0x42, 0x6a, 0xbd, 0xba, 0x1a, 0x38, 0xbf, 0x12, 0xbf, 0xbf, 0xbe,
  0x6e, 0x23, 0x3b, 0x3f, 0xf3, 0xb1, 0x4e, 0xbf, 0x7c, 0x6d, 0x03, 0x3f,
  0xb2, 0x71, 0x82, 0x3e, 0x66, 0xab, 0x23, 0xbe, 0x8b, 0xcb, 0x3c, 0xbf,
  0xa7, 0x8a, 0xa1, 0xbe, 0x9f, 0xd2, 0xd8, 0xbe, 0x9e, 0x17, 0x31, 0x3e,
  0xa7, 0xae, 0x21, 0xbe, 0xfa, 0x8a, 0x1c, 0xbe, 0xfe, 0xe0, 0x27, 0x3e,
  0x03, 0x89, 0x04, 0x3f, 0xde, 0xa7, 0xe9, 0x3e, 0x68, 0xea, 0x4b, 0xbf,
  0x63, 0xc4, 0x96, 0x3e, 0x80, 0xea, 0xb7, 0xbd, 0x0f, 0xbe, 0x56, 0xbf,
  0x0c, 0xf7, 0x3e, 0x3c, 0xb7, 0x7c, 0xd4, 0xbc, 0xf2, 0xf4, 0x77, 0x3b,
  0x4f, 0x29, 0x0c, 0x3f, 0x68, 0x0e, 0x69, 0x3e, 0xda, 0x65, 0x6f, 0x3e,
  0x25, 0x42, 0xbe, 0x3e, 0x2c, 0x7a, 0xd2, 0x3f, 0x3a, 0x27, 0x21, 0x3f,
  0xa1, 0x99, 0xa2, 0x3d, 0xd5, 0x5b, 0xbd, 0x3e, 0x99, 0x04, 0x27, 0xbf,
  0x3b, 0x66, 0x4c, 0x3e, 0x62, 0xdd, 0xc5, 0xbe, 0x2e, 0x8a, 0x5a, 0xbd,
  0x83, 0x68, 0xfc, 0x3e, 0x3a, 0x95, 0xda, 0xbd, 0xba, 0xbc, 0xfe, 0xbe,
  0xbd, 0x44, 0x36, 0x3f, 0x42, 0x0e, 0xba, 0xbe, 0xb1, 0xff, 0xa5, 0x3c,
  0x7b, 0xac, 0x60, 0x3f, 0x87, 0x4d, 0x37, 0xbf, 0xfe, 0x17, 0x67, 0xbe,
  0xcd, 0xb3, 0xe5, 0xbe, 0x02, 0x59, 0xcf, 0xbe, 0x48, 0x3d, 0xc2, 0x3e,
  0x9a, 0x3b, 0x63, 0xbe, 0x82, 0x96, 0x9c, 0xbe, 0x95, 0x29, 0x26, 0xbd,
  0x6e, 0x29, 0x09, 0xbe, 0x79, 0x2f, 0x92, 0xbe, 0x07, 0x3a, 0xbc, 0x3e,
  0x81, 0x77, 0x0c, 0x3f, 0x91, 0x90, 0x90, 0xbd, 0x4c, 0xea, 0xa4, 0x3e,
  0x40, 0x4c, 0x0d, 0xbe, 0xf1, 0xa8, 0x12, 0xbf, 0x07, 0x73, 0x11, 0x3f,
  0xb8, 0xf3, 0xed, 0xbe, 0xee, 0x60, 0x41, 0x3d, 0x01, 0x54, 0x7c, 0x3f,
  0xce, 0xa9, 0x1b, 0xbf, 0x98, 0x8d, 0x7b, 0xbe, 0xeb, 0xa2, 0x77, 0xbf,
  0x87, 0xe5, 0x1e, 0xbf, 0x8d, 0xc3, 0x46, 0xbf, 0x88, 0x1f, 0x3a, 0xbf,
  0x40, 0x2a, 0x17, 0x3e, 0xbd, 0xd3, 0x93, 0x3e, 0x93, 0x42, 0x15, 0xbf,
  0x49, 0x4d, 0xa6, 0x3e, 0xad, 0x93, 0xfc, 0x3e, 0x17, 0xff, 0xb3, 0x3d,
  0xd0, 0x2e, 0x2b, 0x3f, 0x8f, 0x30, 0x0b, 0xbf, 0x00, 0x0e, 0x1c, 0xbd,
  0xe4, 0x26, 0x96, 0x3e, 0xf1, 0x2b, 0x41, 0x3f, 0x6e, 0x26, 0x1d, 0x3f,
  0xc5, 0xd7, 0x51, 0xbe, 0xa7, 0xa5, 0x75, 0x3f, 0x53, 0xd2, 0xe6, 0xbc,
  0x2d, 0x57, 0x24, 0xbf, 0x4a, 0xcc, 0x81, 0xbe, 0x24, 0x2a, 0xea, 0x3d,
  0xd4, 0x36, 0x37, 0xbf, 0x41, 0xf9, 0x33, 0xbe, 0x38, 0x1d, 0xc9, 0x3e,
  0x64, 0x26, 0x21, 0xbf, 0xfc, 0x0b, 0x10, 0x3f, 0x89, 0xc6, 0x5d, 0x3f,
  0xc4, 0xf8, 0x45, 0xbe, 0xaf, 0x4e, 0x07, 0x3f, 0xf7, 0xc5, 0x85, 0x3d,
  0xac, 0x13, 0x30, 0xbe, 0xe7, 0xb5, 0xf7, 0x3e, 0x5d, 0x5a, 0x30, 0x3f,
  0x80, 0xe8, 0x90, 0x3d, 0xe8, 0x5f, 0x5a, 0xbe, 0xa6, 0xe0, 0x9e, 0xbe,
  0xec, 0x51, 0xba, 0xbd, 0x32, 0xd1, 0xc5, 0xbe, 0xf3, 0x7d, 0x93, 0xbf,
  0x63, 0x3d, 0xff, 0x3e, 0xef, 0x0d, 0x57, 0x3f, 0xa7, 0x1d, 0xca, 0xbd,
  0x5e, 0x3b, 0x93, 0xbd, 0x20, 0x46, 0xe2, 0xbd, 0x31, 0x6d, 0xa0, 0xbe,
  0x3b, 0x6d, 0xa3, 0x3e, 0xbc, 0x50, 0x45, 0x3f, 0xdb, 0xfd, 0xa0, 0xbe,
  0x7b, 0x4b, 0xea, 0xbe, 0xce, 0x44, 0x27, 0xbf, 0x70, 0xe4, 0xea, 0xbe,
  0xef, 0xd7, 0x24, 0x3f, 0xae, 0x5b, 0x56, 0xbb, 0xe7, 0xae, 0x8d, 0xbe,
  0x27, 0x27, 0x86, 0xbe, 0x2b, 0xe8, 0x01, 0x3f, 0x7b, 0x6a, 0x68, 0x3e,
  0x81, 0xec, 0x91, 0xbd, 0x52, 0x8a, 0xbe, 0x3e, 0x62, 0xe2, 0x12, 0xbf,
  0xfb, 0x6b, 0x65, 0x3e, 0x5f, 0xef, 0x6e, 0xbd, 0xf0, 0x85, 0x3a, 0x3d,
  0x35, 0x81, 0xb6, 0xbe, 0x58, 0x35, 0x1d, 0x3d, 0xda, 0xc7, 0x14, 0x3f,
  0x6a, 0xfe, 0xff, 0xff, 0x04, 0x00, 0x00, 0x00, 0x50, 0x00, 0x00, 0x00,
  0x7b, 0x55, 0x55, 0x3f, 0x6b, 0x8b, 0xa4, 0xbf, 0x35, 0xbc, 0x85, 0x3e,
  0x3e, 0x20, 0x82, 0xbf, 0xac, 0x58, 0xc7, 0x3f, 0x4f, 0x48, 0x6c, 0x3f,
  0x46, 0x62, 0xd7, 0xbe, 0xdf, 0xf2, 0xb4, 0x3f, 0xb9, 0x9a, 0x8c, 0xbf,
  0xaa, 0x26, 0xbe, 0xbe, 0x21, 0xe8, 0x01, 0x40, 0x83, 0xa2, 0x47, 0xbf,
  0xfd, 0x73, 0x02, 0x40, 0xaa, 0x8a, 0xa2, 0x3f, 0xb1, 0x6d, 0xaf, 0xbe,
  0x5e, 0xa2, 0x1c, 0xbf, 0x06, 0x4a, 0x39, 0xbe, 0xea, 0x1a, 0x27, 0x3f,
  0x44, 0x5c, 0x32, 0x3e, 0x17, 0x1f, 0x5d, 0xbe, 0xc6, 0xfe, 0xff, 0xff,
  0x04, 0x00, 0x00, 0x00, 0x28, 0x00, 0x00, 0x00, 0xf1, 0x19, 0xab, 0xb9,
  0x59, 0xae, 0x5a, 0xb5, 0x7c, 0xf4, 0x53, 0xbf, 0x43, 0xe2, 0x0b, 0x3f,
  0x00, 0x00, 0x00, 0x00, 0x14, 0x71, 0xa6, 0xbd, 0xef, 0x34, 0x8f, 0xbf,
  0x00, 0x00, 0x00, 0x00, 0x5f, 0x7b, 0x2c, 0xbe, 0xd5, 0xfe, 0x2f, 0x3a,
  0xfa, 0xfe, 0xff, 0xff, 0x04, 0x00, 0x00, 0x00, 0x50, 0x00, 0x00, 0x00,
  0xa6, 0xae, 0x69, 0xbe, 0x5b, 0x49, 0xd2, 0xbd, 0x27, 0xfe, 0xef, 0x3e,
  0x75, 0x9f, 0x18, 0x3f, 0x28, 0x65, 0xc8, 0xbe, 0x16, 0xab, 0xb2, 0xbd,
  0x59, 0xe9, 0x22, 0xbe, 0x69, 0x21, 0xa0, 0x3f, 0x93, 0x87, 0x40, 0xbe,
  0x81, 0xbf, 0xb0, 0xbe, 0x00, 0x00, 0x00, 0x00, 0x88, 0x8a, 0x0f, 0xb9,
  0xcd, 0x75, 0x94, 0x39, 0x00, 0x00, 0x00, 0x00, 0x23, 0xa8, 0xf3, 0xbe,
  0x00, 0x00, 0x00, 0x00, 0x74, 0xc0, 0x0d, 0xbe, 0x13, 0x77, 0x79, 0x3f,
  0xb8, 0xce, 0x3f, 0x39, 0x87, 0x2b, 0x75, 0x3a, 0x56, 0xff, 0xff, 0xff,
  0x04, 0x00, 0x00, 0x00, 0x08, 0x00, 0x00, 0x00, 0x29, 0x5e, 0x88, 0xbf,
  0x36, 0x5e, 0x88, 0x3f, 0x20, 0xfa, 0xff, 0xff, 0x24, 0xfa, 0xff, 0xff,
  0x0f, 0x00, 0x00, 0x00, 0x4d, 0x4c, 0x49, 0x52, 0x20, 0x43, 0x6f, 0x6e,
  0x76, 0x65, 0x72, 0x74, 0x65, 0x64, 0x2e, 0x00, 0x01, 0x00, 0x00, 0x00,
  0x14, 0x00, 0x00, 0x00, 0x00, 0x00, 0x0e, 0x00, 0x18, 0x00, 0x14, 0x00,
  0x10, 0x00, 0x0c, 0x00, 0x08, 0x00, 0x04, 0x00, 0x0e, 0x00, 0x00, 0x00,
  0x14, 0x00, 0x00, 0x00, 0x1c, 0x00, 0x00, 0x00, 0x24, 0x01, 0x00, 0x00,
  0x28, 0x01, 0x00, 0x00, 0x2c, 0x01, 0x00, 0x00, 0x04, 0x00, 0x00, 0x00,
  0x6d, 0x61, 0x69, 0x6e, 0x00, 0x00, 0x00, 0x00, 0x04, 0x00, 0x00, 0x00,
  0xcc, 0x00, 0x00, 0x00, 0x84, 0x00, 0x00, 0x00, 0x50, 0x00, 0x00, 0x00,
  0x14, 0x00, 0x00, 0x00, 0x00, 0x00, 0x0e, 0x00, 0x1a, 0x00, 0x14, 0x00,
  0x10, 0x00, 0x0c, 0x00, 0x0b, 0x00, 0x04, 0x00, 0x0e, 0x00, 0x00, 0x00,
  0x1c, 0x00, 0x00, 0x00, 0x00, 0x00, 0x00, 0x09, 0x1c, 0x00, 0x00, 0x00,
  0x20, 0x00, 0x00, 0x00, 0x01, 0x00, 0x00, 0x00, 0x00, 0x00, 0x06, 0x00,
  0x08, 0x00, 0x04, 0x00, 0x06, 0x00, 0x00, 0x00, 0x00, 0x00, 0x80, 0x3f,
  0x01, 0x00, 0x00, 0x00, 0x0a, 0x00, 0x00, 0x00, 0x01, 0x00, 0x00, 0x00,
  0x09, 0x00, 0x00, 0x00, 0x9a, 0xff, 0xff, 0xff, 0x10, 0x00, 0x00, 0x00,
  0x00, 0x00, 0x00, 0x08, 0x0c, 0x00, 0x00, 0x00, 0x10, 0x00, 0x00, 0x00,
  0xe8, 0xfa, 0xff, 0xff, 0x01, 0x00, 0x00, 0x00, 0x09, 0x00, 0x00, 0x00,
  0x03, 0x00, 0x00, 0x00, 0x08, 0x00, 0x00, 0x00, 0x06, 0x00, 0x00, 0x00,
  0x01, 0x00, 0x00, 0x00, 0xca, 0xff, 0xff, 0xff, 0x10, 0x00, 0x00, 0x00,
  0x00, 0x00, 0x00, 0x08, 0x10, 0x00, 0x00, 0x00, 0x14, 0x00, 0x00, 0x00,
  0xba, 0xff, 0xff, 0xff, 0x00, 0x00, 0x00, 0x01, 0x01, 0x00, 0x00, 0x00,
  0x08, 0x00, 0x00, 0x00, 0x03, 0x00, 0x00, 0x00, 0x07, 0x00, 0x00, 0x00,
  0x05, 0x00, 0x00, 0x00, 0x02, 0x00, 0x00, 0x00, 0x00, 0x00, 0x0e, 0x00,
  0x16, 0x00, 0x00, 0x00, 0x10, 0x00, 0x0c, 0x00, 0x0b, 0x00, 0x04, 0x00,
  0x0e, 0x00, 0x00, 0x00, 0x18, 0x00, 0x00, 0x00, 0x00, 0x00, 0x00, 0x08,
  0x18, 0x00, 0x00, 0x00, 0x1c, 0x00, 0x00, 0x00, 0x00, 0x00, 0x06, 0x00,
  0x08, 0x00, 0x07, 0x00, 0x06, 0x00, 0x00, 0x00, 0x00, 0x00, 0x00, 0x01,
  0x01, 0x00, 0x00, 0x00, 0x07, 0x00, 0x00, 0x00, 0x03, 0x00, 0x00, 0x00,
  0x00, 0x00, 0x00, 0x00, 0x04, 0x00, 0x00, 0x00, 0x03, 0x00, 0x00, 0x00,
  0x01, 0x00, 0x00, 0x00, 0x0a, 0x00, 0x00, 0x00, 0x01, 0x00, 0x00, 0x00,
  0x00, 0x00, 0x00, 0x00, 0x0b, 0x00, 0x00, 0x00, 0x40, 0x04, 0x00, 0x00,
  0xcc, 0x03, 0x00, 0x00, 0x58, 0x03, 0x00, 0x00, 0xfc, 0x02, 0x00, 0x00,
  0xac, 0x02, 0x00, 0x00, 0x5c, 0x02, 0x00, 0x00, 0x0c, 0x02, 0x00, 0x00,
  0x74, 0x01, 0x00, 0x00, 0xdc, 0x00, 0x00, 0x00, 0x60, 0x00, 0x00, 0x00,
  0x04, 0x00, 0x00, 0x00, 0x02, 0xfc, 0xff, 0xff, 0x00, 0x00, 0x00, 0x01,
  0x14, 0x00, 0x00, 0x00, 0x1c, 0x00, 0x00, 0x00, 0x1c, 0x00, 0x00, 0x00,
  0x0b, 0x00, 0x00, 0x00, 0x34, 0x00, 0x00, 0x00, 0x02, 0x00, 0x00, 0x00,
  0xff, 0xff, 0xff, 0xff, 0x02, 0x00, 0x00, 0x00, 0xec, 0xfb, 0xff, 0xff,
  0x19, 0x00, 0x00, 0x00, 0x53, 0x74, 0x61, 0x74, 0x65, 0x66, 0x75, 0x6c,
  0x50, 0x61, 0x72, 0x74, 0x69, 0x74, 0x69, 0x6f, 0x6e, 0x65, 0x64, 0x43,
  0x61, 0x6c, 0x6c, 0x3a, 0x30, 0x00, 0x00, 0x00, 0x02, 0x00, 0x00, 0x00,
  0x01, 0x00, 0x00, 0x00, 0x02, 0x00, 0x00, 0x00, 0x5a, 0xfc, 0xff, 0xff,
  0x00, 0x00, 0x00, 0x01, 0x14, 0x00, 0x00, 0x00, 0x1c, 0x00, 0x00, 0x00,
  0x1c, 0x00, 0x00, 0x00, 0x0a, 0x00, 0x00, 0x00, 0x54, 0x00, 0x00, 0x00,
  0x02, 0x00, 0x00, 0x00, 0xff, 0xff, 0xff, 0xff, 0x02, 0x00, 0x00, 0x00,
  0x44, 0xfc, 0xff, 0xff, 0x3a, 0x00, 0x00, 0x00, 0x73, 0x65, 0x71, 0x75,
  0x65, 0x6e, 0x74, 0x69, 0x61, 0x6c, 0x5f, 0x34, 0x2f, 0x64, 0x65, 0x6e,
  0x73, 0x65, 0x5f, 0x31, 0x34, 0x2f, 0x4d, 0x61, 0x74, 0x4d, 0x75, 0x6c,
  0x3b, 0x73, 0x65, 0x71, 0x75, 0x65, 0x6e, 0x74, 0x69, 0x61, 0x6c, 0x5f,
  0x34, 0x2f, 0x64, 0x65, 0x6e, 0x73, 0x65, 0x5f, 0x31, 0x34, 0x2f, 0x42,
  0x69, 0x61, 0x73, 0x41, 0x64, 0x64, 0x00, 0x00, 0x02, 0x00, 0x00, 0x00,
  0x01, 0x00, 0x00, 0x00, 0x02, 0x00, 0x00, 0x00, 0xd2, 0xfc, 0xff, 0xff,
  0x00, 0x00, 0x00, 0x01, 0x14, 0x00, 0x00, 0x00, 0x1c, 0x00, 0x00, 0x00,
  0x1c, 0x00, 0x00, 0x00, 0x09, 0x00, 0x00, 0x00, 0x70, 0x00, 0x00, 0x00,
  0x02, 0x00, 0x00, 0x00, 0xff, 0xff, 0xff, 0xff, 0x14, 0x00, 0x00, 0x00,
  0xbc, 0xfc, 0xff, 0xff, 0x55, 0x00, 0x00, 0x00, 0x73, 0x65, 0x71, 0x75,
  0x65, 0x6e, 0x74, 0x69, 0x61, 0x6c, 0x5f, 0x34, 0x2f, 0x64, 0x65, 0x6e,
  0x73, 0x65, 0x5f, 0x31, 0x33, 0x2f, 0x4d, 0x61, 0x74, 0x4d, 0x75, 0x6c,
  0x3b, 0x73, 0x65, 0x71, 0x75, 0x65, 0x6e, 0x74, 0x69, 0x61, 0x6c, 0x5f,
  0x34, 0x2f, 0x64, 0x65, 0x6e, 0x73, 0x65, 0x5f, 0x31, 0x33, 0x2f, 0x52,
  0x65, 0x6c, 0x75, 0x3b, 0x73, 0x65, 0x71, 0x75, 0x65, 0x6e, 0x74, 0x69,
  0x61, 0x6c, 0x5f, 0x34, 0x2f, 0x64, 0x65, 0x6e, 0x73, 0x65, 0x5f, 0x31,
  0x33, 0x2f, 0x42, 0x69, 0x61, 0x73, 0x41, 0x64, 0x64, 0x00, 0x00, 0x00,
  0x02, 0x00, 0x00, 0x00, 0x01, 0x00, 0x00, 0x00, 0x14, 0x00, 0x00, 0x00,
  0x66, 0xfd, 0xff, 0xff, 0x00, 0x00, 0x00, 0x01, 0x14, 0x00, 0x00, 0x00,
  0x1c, 0x00, 0x00, 0x00, 0x1c, 0x00, 0x00, 0x00, 0x08, 0x00, 0x00, 0x00,
  0x70, 0x00, 0x00, 0x00, 0x02, 0x00, 0x00, 0x00, 0xff, 0xff, 0xff, 0xff,
  0x0a, 0x00, 0x00, 0x00, 0x50, 0xfd, 0xff, 0xff, 0x55, 0x00, 0x00, 0x00,
  0x73, 0x65, 0x71, 0x75, 0x65, 0x6e, 0x74, 0x69, 0x61, 0x6c, 0x5f, 0x34,
  0x2f, 0x64, 0x65, 0x6e, 0x73, 0x65, 0x5f, 0x31, 0x32, 0x2f, 0x4d, 0x61,
  0x74, 0x4d, 0x75, 0x6c, 0x3b, 0x73, 0x65, 0x71, 0x75, 0x65, 0x6e, 0x74,
  0x69, 0x61, 0x6c, 0x5f, 0x34, 0x2f, 0x64, 0x65, 0x6e, 0x73, 0x65, 0x5f,
  0x31, 0x32, 0x2f, 0x52, 0x65, 0x6c, 0x75, 0x3b, 0x73, 0x65, 0x71, 0x75,
  0x65, 0x6e, 0x74, 0x69, 0x61, 0x6c, 0x5f, 0x34, 0x2f, 0x64, 0x65, 0x6e,
  0x73, 0x65, 0x5f, 0x31, 0x32, 0x2f, 0x42, 0x69, 0x61, 0x73, 0x41, 0x64,
  0x64, 0x00, 0x00, 0x00, 0x02, 0x00, 0x00, 0x00, 0x01, 0x00, 0x00, 0x00,
  0x0a, 0x00, 0x00, 0x00, 0x6a, 0xfe, 0xff, 0xff, 0x00, 0x00, 0x00, 0x01,
  0x10, 0x00, 0x00, 0x00, 0x10, 0x00, 0x00, 0x00, 0x07, 0x00, 0x00, 0x00,
  0x2c, 0x00, 0x00, 0x00, 0xd4, 0xfd, 0xff, 0xff, 0x1c, 0x00, 0x00, 0x00,
  0x73, 0x65, 0x71, 0x75, 0x65, 0x6e, 0x74, 0x69, 0x61, 0x6c, 0x5f, 0x34,
  0x2f, 0x64, 0x65, 0x6e, 0x73, 0x65, 0x5f, 0x31, 0x34, 0x2f, 0x4d, 0x61,
  0x74, 0x4d, 0x75, 0x6c, 0x00, 0x00, 0x00, 0x00, 0x02, 0x00, 0x00, 0x00,
  0x02, 0x00, 0x00, 0x00, 0x14, 0x00, 0x00, 0x00, 0xb6, 0xfe, 0xff, 0xff,
  0x00, 0x00, 0x00, 0x01, 0x10, 0x00, 0x00, 0x00, 0x10, 0x00, 0x00, 0x00,
  0x06, 0x00, 0x00, 0x00, 0x2c, 0x00, 0x00, 0x00, 0x20, 0xfe, 0xff, 0xff,
  0x1c, 0x00, 0x00, 0x00, 0x73, 0x65, 0x71, 0x75, 0x65, 0x6e, 0x74, 0x69,
  0x61, 0x6c, 0x5f, 0x34, 0x2f, 0x64, 0x65, 0x6e, 0x73, 0x65, 0x5f, 0x31,
  0x33, 0x2f, 0x4d, 0x61, 0x74, 0x4d, 0x75, 0x6c, 0x00, 0x00, 0x00, 0x00,
  0x02, 0x00, 0x00, 0x00, 0x14, 0x00, 0x00, 0x00, 0x0a, 0x00, 0x00, 0x00,
  0x02, 0xff, 0xff, 0xff, 0x00, 0x00, 0x00, 0x01, 0x10, 0x00, 0x00, 0x00,
  0x10, 0x00, 0x00, 0x00, 0x05, 0x00, 0x00, 0x00, 0x2c, 0x00, 0x00, 0x00,
  0x6c, 0xfe, 0xff, 0xff, 0x1c, 0x00, 0x00, 0x00, 0x73, 0x65, 0x71, 0x75,
  0x65, 0x6e, 0x74, 0x69, 0x61, 0x6c, 0x5f, 0x34, 0x2f, 0x64, 0x65, 0x6e,
  0x73, 0x65, 0x5f, 0x31, 0x32, 0x2f, 0x4d, 0x61, 0x74, 0x4d, 0x75, 0x6c,
  0x00, 0x00, 0x00, 0x00, 0x02, 0x00, 0x00, 0x00, 0x0a, 0x00, 0x00, 0x00,
  0x02, 0x00, 0x00, 0x00, 0x4e, 0xff, 0xff, 0xff, 0x00, 0x00, 0x00, 0x01,
  0x10, 0x00, 0x00, 0x00, 0x10, 0x00, 0x00, 0x00, 0x04, 0x00, 0x00, 0x00,
  0x3c, 0x00, 0x00, 0x00, 0xb8, 0xfe, 0xff, 0xff, 0x2c, 0x00, 0x00, 0x00,
  0x73, 0x65, 0x71, 0x75, 0x65, 0x6e, 0x74, 0x69, 0x61, 0x6c, 0x5f, 0x34,
  0x2f, 0x64, 0x65, 0x6e, 0x73, 0x65, 0x5f, 0x31, 0x32, 0x2f, 0x42, 0x69,
  0x61, 0x73, 0x41, 0x64, 0x64, 0x2f, 0x52, 0x65, 0x61, 0x64, 0x56, 0x61,
  0x72, 0x69, 0x61, 0x62, 0x6c, 0x65, 0x4f, 0x70, 0x00, 0x00, 0x00, 0x00,
  0x01, 0x00, 0x00, 0x00, 0x0a, 0x00, 0x00, 0x00, 0xa6, 0xff, 0xff, 0xff,
  0x00, 0x00, 0x00, 0x01, 0x10, 0x00, 0x00, 0x00, 0x10, 0x00, 0x00, 0x00,
  0x03, 0x00, 0x00, 0x00, 0x3c, 0x00, 0x00, 0x00, 0x10, 0xff, 0xff, 0xff,
  0x2c, 0x00, 0x00, 0x00, 0x73, 0x65, 0x71, 0x75, 0x65, 0x6e, 0x74, 0x69,
  0x61, 0x6c, 0x5f, 0x34, 0x2f, 0x64, 0x65, 0x6e, 0x73, 0x65, 0x5f, 0x31,
  0x33, 0x2f, 0x42, 0x69, 0x61, 0x73, 0x41, 0x64, 0x64, 0x2f, 0x52, 0x65,
  0x61, 0x64, 0x56, 0x61, 0x72, 0x69, 0x61, 0x62, 0x6c, 0x65, 0x4f, 0x70,
  0x00, 0x00, 0x00, 0x00, 0x01, 0x00, 0x00, 0x00, 0x14, 0x00, 0x00, 0x00,
  0x00, 0x00, 0x16, 0x00, 0x18, 0x00, 0x14, 0x00, 0x00, 0x00, 0x10, 0x00,
  0x0c, 0x00, 0x08, 0x00, 0x00, 0x00, 0x00, 0x00, 0x00, 0x00, 0x07, 0x00,
  0x16, 0x00, 0x00, 0x00, 0x00, 0x00, 0x00, 0x01, 0x10, 0x00, 0x00, 0x00,
  0x10, 0x00, 0x00, 0x00, 0x02, 0x00, 0x00, 0x00, 0x3c, 0x00, 0x00, 0x00,
  0x80, 0xff, 0xff, 0xff, 0x2c, 0x00, 0x00, 0x00, 0x73, 0x65, 0x71, 0x75,
  0x65, 0x6e, 0x74, 0x69, 0x61, 0x6c, 0x5f, 0x34, 0x2f, 0x64, 0x65, 0x6e,
  0x73, 0x65, 0x5f, 0x31, 0x34, 0x2f, 0x42, 0x69, 0x61, 0x73, 0x41, 0x64,
  0x64, 0x2f, 0x52, 0x65, 0x61, 0x64, 0x56, 0x61, 0x72, 0x69, 0x61, 0x62,
  0x6c, 0x65, 0x4f, 0x70, 0x00, 0x00, 0x00, 0x00, 0x01, 0x00, 0x00, 0x00,
  0x02, 0x00, 0x00, 0x00, 0x00, 0x00, 0x16, 0x00, 0x1c, 0x00, 0x18, 0x00,
  0x00, 0x00, 0x14, 0x00, 0x10, 0x00, 0x0c, 0x00, 0x00, 0x00, 0x00, 0x00,
  0x08, 0x00, 0x07, 0x00, 0x16, 0x00, 0x00, 0x00, 0x00, 0x00, 0x00, 0x01,
  0x14, 0x00, 0x00, 0x00, 0x20, 0x00, 0x00, 0x00, 0x20, 0x00, 0x00, 0x00,
  0x01, 0x00, 0x00, 0x00, 0x40, 0x00, 0x00, 0x00, 0x02, 0x00, 0x00, 0x00,
  0xff, 0xff, 0xff, 0xff, 0x02, 0x00, 0x00, 0x00, 0x04, 0x00, 0x04, 0x00,
  0x04, 0x00, 0x00, 0x00, 0x20, 0x00, 0x00, 0x00, 0x73, 0x65, 0x72, 0x76,
  0x69, 0x6e, 0x67, 0x5f, 0x64, 0x65, 0x66, 0x61, 0x75, 0x6c, 0x74, 0x5f,
  0x64, 0x65, 0x6e, 0x73, 0x65, 0x5f, 0x31, 0x32, 0x5f, 0x69, 0x6e, 0x70,
  0x75, 0x74, 0x3a, 0x30, 0x00, 0x00, 0x00, 0x00, 0x02, 0x00, 0x00, 0x00,
  0x01, 0x00, 0x00, 0x00, 0x02, 0x00, 0x00, 0x00, 0x02, 0x00, 0x00, 0x00,
  0x20, 0x00, 0x00, 0x00, 0x04, 0x00, 0x00, 0x00, 0xf4, 0xff, 0xff, 0xff,
  0x19, 0x00, 0x00, 0x00, 0x00, 0x00, 0x00, 0x19, 0x0c, 0x00, 0x0c, 0x00,
  0x0b, 0x00, 0x00, 0x00, 0x00, 0x00, 0x04, 0x00, 0x0c, 0x00, 0x00, 0x00,
  0x09, 0x00, 0x00, 0x00, 0x00, 0x00, 0x00, 0x09
};