const unsigned char model[] = {
  0x1c, 0x00, 0x00, 0x00, 0x54, 0x46, 0x4c, 0x33, 0x14, 0x00, 0x20, 0x00,
  0x1c, 0x00, 0x18, 0x00, 0x14, 0x00, 0x10, 0x00, 0x0c, 0x00, 0x00, 0x00,
  0x08, 0x00, 0x04, 0x00, 0x14, 0x00, 0x00, 0x00, 0x1c, 0x00, 0x00, 0x00,
  0x90, 0x00, 0x00, 0x00, 0xe8, 0x00, 0x00, 0x00, 0x04, 0x0d, 0x00, 0x00,
  0x14, 0x0d, 0x00, 0x00, 0x3c, 0x14, 0x00, 0x00, 0x03, 0x00, 0x00, 0x00,
  0x01, 0x00, 0x00, 0x00, 0x10, 0x00, 0x00, 0x00, 0x00, 0x00, 0x0a, 0x00,
  0x10, 0x00, 0x0c, 0x00, 0x08, 0x00, 0x04, 0x00, 0x0a, 0x00, 0x00, 0x00,
  0x0c, 0x00, 0x00, 0x00, 0x1c, 0x00, 0x00, 0x00, 0x38, 0x00, 0x00, 0x00,
  0x0f, 0x00, 0x00, 0x00, 0x73, 0x65, 0x72, 0x76, 0x69, 0x6e, 0x67, 0x5f,
  0x64, 0x65, 0x66, 0x61, 0x75, 0x6c, 0x74, 0x00, 0x01, 0x00, 0x00, 0x00,
  0x04, 0x00, 0x00, 0x00, 0x98, 0xff, 0xff, 0xff, 0x0d, 0x00, 0x00, 0x00,
  0x04, 0x00, 0x00, 0x00, 0x07, 0x00, 0x00, 0x00, 0x64, 0x65, 0x6e, 0x73,
  0x65, 0x5f, 0x33, 0x00, 0x01, 0x00, 0x00, 0x00, 0x04, 0x00, 0x00, 0x00,
  0xda, 0xf2, 0xff, 0xff, 0x04, 0x00, 0x00, 0x00, 0x0b, 0x00, 0x00, 0x00,
  0x64, 0x65, 0x6e, 0x73, 0x65, 0x5f, 0x69, 0x6e, 0x70, 0x75, 0x74, 0x00,
  0x02, 0x00, 0x00, 0x00, 0x34, 0x00, 0x00, 0x00, 0x04, 0x00, 0x00, 0x00,
  0xdc, 0xff, 0xff, 0xff, 0x10, 0x00, 0x00, 0x00, 0x04, 0x00, 0x00, 0x00,
  0x13, 0x00, 0x00, 0x00, 0x43, 0x4f, 0x4e, 0x56, 0x45, 0x52, 0x53, 0x49,
  0x4f, 0x4e, 0x5f, 0x4d, 0x45, 0x54, 0x41, 0x44, 0x41, 0x54, 0x41, 0x00,
  0x08, 0x00, 0x0c, 0x00, 0x08, 0x00, 0x04, 0x00, 0x08, 0x00, 0x00, 0x00,
  0x0f, 0x00, 0x00, 0x00, 0x04, 0x00, 0x00, 0x00, 0x13, 0x00, 0x00, 0x00,
  0x6d, 0x69, 0x6e, 0x5f, 0x72, 0x75, 0x6e, 0x74, 0x69, 0x6d, 0x65, 0x5f,
  0x76, 0x65, 0x72, 0x73, 0x69, 0x6f, 0x6e, 0x00, 0x11, 0x00, 0x00, 0x00,
  0x18, 0x0c, 0x00, 0x00, 0x10, 0x0c, 0x00, 0x00, 0xb0, 0x0b, 0x00, 0x00,
  0x50, 0x0b, 0x00, 0x00, 0x18, 0x0b, 0x00, 0x00, 0x00, 0x0b, 0x00, 0x00,
  0xe0, 0x0a, 0x00, 0x00, 0x30, 0x0a, 0x00, 0x00, 0xe0, 0x03, 0x00, 0x00,
  0xb0, 0x00, 0x00, 0x00, 0xa8, 0x00, 0x00, 0x00, 0xa0, 0x00, 0x00, 0x00,
  0x98, 0x00, 0x00, 0x00, 0x90, 0x00, 0x00, 0x00, 0x88, 0x00, 0x00, 0x00,
  0x68, 0x00, 0x00, 0x00, 0x04, 0x00, 0x00, 0x00, 0x96, 0xf3, 0xff, 0xff,
  0x04, 0x00, 0x00, 0x00, 0x54, 0x00, 0x00, 0x00, 0x0c, 0x00, 0x00, 0x00,
  0x08, 0x00, 0x0e, 0x00, 0x08, 0x00, 0x04, 0x00, 0x08, 0x00, 0x00, 0x00,
  0x10, 0x00, 0x00, 0x00, 0x24, 0x00, 0x00, 0x00, 0x00, 0x00, 0x06, 0x00,
  0x08, 0x00, 0x04, 0x00, 0x06, 0x00, 0x00, 0x00, 0x04, 0x00, 0x00, 0x00,
  0x00, 0x00, 0x00, 0x00, 0x00, 0x00, 0x0a, 0x00, 0x10, 0x00, 0x0c, 0x00,
  0x08, 0x00, 0x04, 0x00, 0x0a, 0x00, 0x00, 0x00, 0x02, 0x00, 0x00, 0x00,
  0x02, 0x00, 0x00, 0x00, 0x04, 0x00, 0x00, 0x00, 0x06, 0x00, 0x00, 0x00,
  0x32, 0x2e, 0x31, 0x32, 0x2e, 0x30, 0x00, 0x00, 0xf6, 0xf3, 0xff, 0xff,
  0x04, 0x00, 0x00, 0x00, 0x10, 0x00, 0x00, 0x00, 0x31, 0x2e, 0x35, 0x2e,
  0x30, 0x00, 0x00, 0x00, 0x00, 0x00, 0x00, 0x00, 0x00, 0x00, 0x00, 0x00,
  0x9c, 0xed, 0xff, 0xff, 0xa0, 0xed, 0xff, 0xff, 0xa4, 0xed, 0xff, 0xff,
  0xa8, 0xed, 0xff, 0xff, 0xac, 0xed, 0xff, 0xff, 0x26, 0xf4, 0xff, 0xff,
  0x04, 0x00, 0x00, 0x00, 0x20, 0x03, 0x00, 0x00, 0x22, 0x6d, 0x82, 0x3f,
  0x91, 0x46, 0xdd, 0x3c, 0xfe, 0x7c, 0x22, 0x3e, 0xf2, 0x63, 0x21, 0xbe,
  0x33, 0xc8, 0xca, 0xbe, 0x6e, 0x85, 0xb5, 0x3d, 0x2e, 0xc1, 0xec, 0xbf,
  0xdc, 0x90, 0x75, 0xbe, 0xe5, 0x8b, 0xb2, 0x3d, 0x45, 0x2d, 0xaf, 0xbe,
  0x11, 0x84, 0x84, 0x3e, 0x99, 0xd5, 0x3f, 0x3e, 0xe3, 0xe0, 0xd2, 0xbf,
  0x3e, 0xb9, 0x20, 0xbf, 0x87, 0x6f, 0xac, 0x3e, 0x10, 0x5f, 0x8d, 0x3f,
  0x08, 0xc7, 0x23, 0x3e, 0xe1, 0x0a, 0x63, 0xbe, 0xe0, 0x97, 0xe8, 0x3e,
  0x0a, 0x5a, 0x32, 0xbe, 0x2f, 0xc5, 0x4c, 0x3f, 0x21, 0xf2, 0xed, 0xbe,
  0x17, 0xe9, 0x3c, 0x3e, 0x9c, 0xc2, 0xb3, 0x3e, 0x58, 0xa4, 0xc2, 0xbe,
  0x33, 0x3f, 0x59, 0xbf, 0x26, 0x70, 0x56, 0x3e, 0xa4, 0x0a, 0x89, 0xbf,
  0xb0, 0xd1, 0x06, 0x3e, 0x16, 0x6f, 0x53, 0xbe, 0xbf, 0xe0, 0x0c, 0xbe,
  0xfc, 0x46, 0xd8, 0x3e, 0x85, 0xd9, 0x87, 0xbf, 0x68, 0x9c, 0x97, 0x3f,
  0x04, 0x64, 0x41, 0x3e, 0xb3, 0x1a, 0xbc, 0x3f, 0x59, 0xf4, 0x0e, 0x40,
  0x4a, 0x49, 0x81, 0xbe, 0xa3, 0x9e, 0x12, 0x3f, 0x43, 0xd9, 0x97, 0xbe,
  0x14, 0x82, 0x81, 0x3e, 0xe6, 0x3a, 0xd2, 0x3e, 0xc2, 0x3e, 0x61, 0xbf,
  0x82, 0x5f, 0x0e, 0x3e, 0x26, 0xc8, 0x30, 0xbf, 0xee, 0x85, 0x39, 0xbf,
  0x08, 0xa8, 0x55, 0x3f, 0xf3, 0x42, 0x21, 0xbf, 0x7c, 0x44, 0x6c, 0x3e,
  0x40, 0xd1, 0x64, 0xbe, 0x13, 0x97, 0x7e, 0x3e, 0x58, 0xfb, 0x81, 0xbe,
  0x5b, 0x8b, 0x29, 0x3d, 0x3e, 0x95, 0x6d, 0x3c, 0x17, 0xa2, 0x15, 0x3f,
  0x83, 0x28, 0xb9, 0xbe, 0xda, 0x4a, 0xda, 0x3f, 0xc1, 0x9f, 0x7c, 0xbe,
  0x78, 0x26, 0x2f, 0xbf, 0x75, 0x63, 0x5e, 0xbe, 0xea, 0xcb, 0x3f, 0x3f,
  0xb8, 0x68, 0x25, 0xbf, 0xad, 0x8b, 0x5e, 0x3e, 0x49, 0xca, 0xa5, 0x3e,
  0xf7, 0x51, 0x2e, 0xbe, 0xe4, 0xce, 0xf0, 0x3f, 0x2f, 0xff, 0x13, 0xbf,
  0xd9, 0xa3, 0xd0, 0xbd, 0x51, 0x40, 0x3b, 0x3f, 0x09, 0xe6, 0x53, 0xbf,
  0x30, 0xc7, 0xa1, 0xbd, 0x50, 0xdb, 0xae, 0x3d, 0x87, 0xbb, 0x41, 0xbf,
  0xf2, 0x85, 0x8b, 0xc0, 0x49, 0x6c, 0xbb, 0xbd, 0xe0, 0x5d, 0x03, 0x3f,
  0x19, 0x09, 0xa2, 0x3f, 0x97, 0x5d, 0xfc, 0x3f, 0xb0, 0x17, 0x50, 0x3f,
  0xd5, 0x96, 0x9f, 0x3f, 0xed, 0xa3, 0x2d, 0xc0, 0x4b, 0xb9, 0x6f, 0x40,
  0x26, 0x80, 0xb0, 0xbe, 0x10, 0x5b, 0x5a, 0xbe, 0xa3, 0x12, 0xd0, 0xbf,
  0xc8, 0x2e, 0x95, 0x3d, 0x20, 0x75, 0xb0, 0x3f, 0x01, 0x11, 0xc1, 0x3f,
  0x5a, 0x87, 0x95, 0x3f, 0x21, 0x99, 0x70, 0x40, 0x79, 0x9c, 0xef, 0xbe,
  0xfd, 0xbf, 0xaa, 0xbd, 0x4c, 0x23, 0x4f, 0x3f, 0x95, 0xa5, 0xd5, 0xbf,
  0xdb, 0xd0, 0xcc, 0xbe, 0x9b, 0x47, 0x2b, 0xbf, 0x5e, 0x16, 0xb8, 0xbf,
  0x6b, 0x41, 0xf8, 0x3f, 0x27, 0x89, 0x89, 0xc0, 0x6b, 0xad, 0xc4, 0x3f,
  0x98, 0x71, 0x42, 0xc0, 0x9d, 0xfa, 0xaf, 0x3f, 0xf1, 0xfc, 0x7b, 0xbf,
  0x33, 0xb3, 0x0d, 0x3d, 0xa8, 0x9b, 0x11, 0x3e, 0x57, 0x1e, 0xf7, 0x3f,
  0x36, 0x1c, 0x8e, 0x3f, 0x1e, 0xda, 0x96, 0xbe, 0x83, 0x8f, 0x22, 0xbf,
  0x9c, 0xc7, 0x0e, 0xbe, 0xef, 0x78, 0xa7, 0x3e, 0x32, 0xe7, 0xa5, 0x3e,
  0x51, 0x5d, 0x34, 0x3f, 0xb7, 0x72, 0xa9, 0x3f, 0x80, 0x0d, 0x69, 0x3f,
  0xc6, 0xaa, 0x78, 0xbf, 0xca, 0x8e, 0xbb, 0xbe, 0x14, 0x57, 0x8c, 0x3c,
  0xc9, 0x2e, 0x80, 0x3c, 0xf0, 0x8d, 0x2f, 0xc0, 0x3a, 0xbe, 0x84, 0x3f,
  0xa4, 0x4f, 0xea, 0x3e, 0x00, 0x71, 0x43, 0xbf, 0x94, 0x6e, 0xf9, 0x3d,
  0xd1, 0xe2, 0x0e, 0x3e, 0xb1, 0x75, 0x18, 0xc0, 0xa9, 0xc6, 0x05, 0xbe,
  0xeb, 0xa4, 0x87, 0xbe, 0xee, 0xfb, 0xa5, 0xbe, 0x2a, 0x02, 0x4d, 0x3f,
  0x8a, 0x64, 0x92, 0xbe, 0xf7, 0xdf, 0xcd, 0x3e, 0x25, 0x29, 0x1a, 0xbe,
  0xda, 0x9e, 0x24, 0x40, 0xbf, 0x95, 0x50, 0x40, 0x80, 0x27, 0xff, 0x3f,
  0xe2, 0xfc, 0xd9, 0xbf, 0x19, 0x79, 0x21, 0xc0, 0xf0, 0xb1, 0xca, 0xbf,
  0x57, 0x1c, 0x9b, 0x3e, 0x60, 0x8d, 0xac, 0xbe, 0x25, 0xea, 0x0d, 0xbf,
  0x40, 0xf7, 0x15, 0x3f, 0x11, 0x6c, 0x8f, 0x3e, 0xda, 0xc7, 0xc8, 0x3e,
  0x4b, 0x66, 0x29, 0xbe, 0x02, 0x07, 0xcc, 0x3e, 0x53, 0x12, 0x51, 0xba,
  0xb6, 0x41, 0x3f, 0x3f, 0x62, 0xb7, 0xcc, 0xbf, 0x66, 0x25, 0x64, 0xbb,
  0xfa, 0x07, 0x92, 0x3e, 0x6b, 0x5f, 0x50, 0x3f, 0x59, 0xd9, 0x44, 0xbf,
  0xcd, 0x37, 0x73, 0x3e, 0x28, 0xc8, 0xf5, 0x3f, 0xe7, 0x68, 0x5b, 0xbf,
  0x11, 0xe3, 0x0a, 0x3f, 0xf7, 0x9a, 0x53, 0x3f, 0x67, 0xc6, 0xf0, 0x3e,
  0x1b, 0x7f, 0x7d, 0xbf, 0xd4, 0xd5, 0x2f, 0x3f, 0x39, 0x46, 0x17, 0x3f,
  0x88, 0xbf, 0x4a, 0x3e, 0x9e, 0x1a, 0xb1, 0x3e, 0x75, 0x32, 0xd8, 0xba,
  0x8c, 0x51, 0xb7, 0x3d, 0x94, 0x2a, 0x95, 0x3e, 0xf8, 0x6f, 0x28, 0xbf,
  0x73, 0xf9, 0xdb, 0x3e, 0x84, 0xf5, 0xd6, 0x3e, 0x21, 0x36, 0xab, 0x3e,
  0xf6, 0xf2, 0xf7, 0x3e, 0xcd, 0x39, 0x0b, 0x3f, 0x26, 0xa0, 0x82, 0xbe,
  0xdc, 0x21, 0x85, 0xc0, 0xb1, 0x40, 0x56, 0xbf, 0x46, 0x64, 0x01, 0x3f,
  0xcb, 0x49, 0xc1, 0x3f, 0xd8, 0x70, 0x09, 0x3f, 0x2e, 0x8f, 0xb1, 0x3f,
  0x4a, 0xcf, 0x8c, 0xc0, 0x18, 0x5c, 0x6f, 0x3f, 0xf7, 0x77, 0x21, 0xbe,
  0x41, 0x7a, 0x62, 0x3f, 0xa2, 0x1f, 0xdf, 0xbe, 0x62, 0x75, 0x33, 0xbf,
  0xe2, 0xe4, 0xbf, 0x3e, 0xc4, 0x0a, 0x25, 0xbf, 0x2c, 0x5c, 0x98, 0xbe,
  0x2f, 0x03, 0x20, 0xbe, 0x56, 0x3b, 0x61, 0xbe, 0xb8, 0xbc, 0x6e, 0x3f,
  0x66, 0xc3, 0x13, 0x40, 0xdd, 0xa2, 0x7f, 0xc0, 0xfb, 0x40, 0x49, 0xbf,
  0x63, 0x24, 0x23, 0xbf, 0x5a, 0xb2, 0x45, 0xbf, 0xee, 0x7c, 0x62, 0x40,
  0x9f, 0x9f, 0x79, 0xbf, 0x52, 0xf7, 0xff, 0xff, 0x04, 0x00, 0x00, 0x00,
  0x40, 0x06, 0x00, 0x00, 0x35, 0xbe, 0x26, 0xbe, 0x2b, 0xc7, 0x2d, 0xbf,
  0x0b, 0x20, 0x08, 0x3d, 0xae, 0x31, 0xe6, 0x3c, 0xa0, 0x1e, 0x50, 0x3f,
  0x3d, 0x86, 0x98, 0x3f, 0x9b, 0x39, 0xde, 0xbd, 0x10, 0xd6, 0xa4, 0x3e,
  0x31, 0x68, 0x51, 0x3f, 0xd5, 0xdb, 0x67, 0x3f, 0xea, 0x41, 0x1a, 0x3e,
  0x99, 0x6c, 0xaa, 0x3f, 0xf4, 0xdc, 0x51, 0xbe, 0x09, 0xd9, 0xdc, 0x3d,
  0xdc, 0x9b, 0x43, 0xbf, 0x6b, 0x97, 0x32, 0x3f, 0x93, 0x19, 0xb4, 0x3e,
  0x89, 0x8c, 0xac, 0xbe, 0x71, 0xc9, 0x29, 0x3f, 0x0c, 0xc1, 0x04, 0xbf,
  0xa4, 0x2b, 0x83, 0x3c, 0x0d, 0xed, 0x24, 0xbf, 0xda, 0x0c, 0x79, 0x3e,
  0x97, 0x01, 0x0d, 0xbe, 0x21, 0x98, 0xeb, 0x3f, 0xa8, 0xf4, 0x9b, 0x3e,
  0x47, 0x86, 0x7a, 0xbe, 0x2f, 0x70, 0x18, 0xbf, 0xe8, 0xda, 0xb0, 0x3f,
  0xeb, 0x64, 0x90, 0x3f, 0x08, 0x2e, 0x41, 0xbf, 0xb7, 0x73, 0xdc, 0xbe,
  0xea, 0xac, 0x2a, 0x3f, 0xb2, 0xc8, 0x93, 0x3e, 0xe6, 0x4f, 0xc5, 0xbf,
  0x23, 0x36, 0x1f, 0xbd, 0xd5, 0x7d, 0x05, 0xc0, 0xf5, 0xcc, 0xe6, 0x3d,
  0xba, 0x78, 0x01, 0xbe, 0x36, 0x21, 0xcd, 0x3e, 0x24, 0x1f, 0xb0, 0x3e,
  0x84, 0x56, 0xb2, 0xbe, 0x58, 0xd6, 0x46, 0xbe, 0xb0, 0x54, 0x86, 0xbe,
  0x9b, 0xa7, 0xfa, 0x3e, 0xec, 0xa4, 0x79, 0xbe, 0x31, 0x3a, 0xc5, 0xbe,
  0x41, 0x62, 0x2e, 0x3e, 0xf2, 0xb2, 0x83, 0x3c, 0x43, 0xeb, 0x4c, 0x3e,
  0xce, 0x87, 0x5a, 0xbb, 0x7a, 0x31, 0x5d, 0xbe, 0x74, 0x1f, 0xda, 0xbd,
  0xde, 0xe8, 0x2a, 0xbe, 0x3a, 0x22, 0xc1, 0x3d, 0xc6, 0x9f, 0x30, 0xbe,
  0x7a, 0x91, 0x8e, 0xbe, 0xbd, 0x98, 0xa1, 0x3d, 0x0f, 0xa8, 0x55, 0xbe,
  0x4c, 0xf0, 0xa1, 0xbd, 0xc2, 0xa6, 0x04, 0x3f, 0x53, 0x96, 0xec, 0xbd,
  0x05, 0x1e, 0xdf, 0xbe, 0x15, 0x9b, 0x3c, 0xbe, 0x1c, 0xe5, 0xab, 0xbe,
  0x20, 0xef, 0xb1, 0xbe, 0xc9, 0xf3, 0xf0, 0xbe, 0xdd, 0x75, 0x51, 0xbe,
  0xe7, 0x8e, 0x6f, 0xbe, 0x5b, 0xf1, 0x4a, 0xbf, 0xf1, 0x57, 0x5a, 0x3c,
  0x1a, 0x24, 0xa8, 0x3e, 0xb6, 0x0f, 0xab, 0x3d, 0xa3, 0xff, 0x05, 0x3f,
  0xa4, 0x46, 0x71, 0x3e, 0xed, 0xbb, 0x79, 0xbe, 0xf1, 0x58, 0xd0, 0xbe,
  0x3b, 0xcd, 0x9c, 0x3e, 0x48, 0xcd, 0x06, 0x3f, 0x4d, 0x96, 0xb5, 0xbe,
  0xd5, 0xbf, 0xf8, 0xbe, 0x41, 0x2e, 0xc8, 0xbe, 0xcd, 0xa9, 0x38, 0xbe,
  0x0a, 0x91, 0x32, 0xbf, 0x42, 0x8f, 0xe3, 0x3e, 0x7c, 0x62, 0x2a, 0xbf,
  0xcd, 0x2d, 0x2d, 0x3f, 0xcd, 0x3e, 0x07, 0xbe, 0x42, 0x94, 0x34, 0xbe,
  0xf7, 0x6a, 0x0d, 0x3f, 0xfb, 0x8b, 0x01, 0xbc, 0xe5, 0x67, 0x5b, 0xbf,
  0x67, 0xa3, 0xa3, 0x3e, 0xe2, 0x5b, 0xde, 0x3d, 0x57, 0xb6, 0x4e, 0x3e,
  0x3a, 0x33, 0x9a, 0x3e, 0x51, 0x96, 0x96, 0x3e, 0x3e, 0xcc, 0x0b, 0xbf,
  0x2f, 0x39, 0x14, 0xbf, 0x3a, 0xf5, 0xe4, 0xbe, 0x60, 0x02, 0x19, 0xbf,
  0xb9, 0x6d, 0x7f, 0x3c, 0x9e, 0xe7, 0x98, 0x3f, 0xba, 0xb5, 0x80, 0x3f,
  0x3e, 0xa7, 0x39, 0x3e, 0xa7, 0x71, 0xca, 0x3f, 0x6d, 0x19, 0xdb, 0xba,
  0x2d, 0xc8, 0x09, 0x3f, 0xc9, 0xce, 0xd8, 0xbe, 0xb9, 0x8b, 0xad, 0xbc,
  0x82, 0x5b, 0xe8, 0xbf, 0xfc, 0x9c, 0x6b, 0x3f, 0x83, 0xee, 0x93, 0x3e,
  0x9d, 0xbc, 0x69, 0x3d, 0x03, 0x75, 0xd9, 0xbf, 0x02, 0xcd, 0x20, 0x3f,
  0x9f, 0x38, 0x49, 0x3f, 0x29, 0xd1, 0x54, 0xbc, 0x54, 0xe8, 0x66, 0x3f,
  0x66, 0x31, 0xd3, 0x3e, 0x54, 0xb3, 0x08, 0xbf, 0xc5, 0x2c, 0x29, 0xbf,
  0x07, 0x4d, 0x0b, 0x3e, 0x50, 0x3d, 0x6c, 0x3d, 0x8c, 0x6d, 0xd7, 0x3f,
  0xa3, 0xcc, 0x18, 0xbe, 0x0c, 0x89, 0x1e, 0x3f, 0x99, 0x76, 0xb4, 0x3e,
  0x0d, 0x1d, 0xf5, 0xbf, 0x11, 0x69, 0xea, 0x3f, 0x70, 0x78, 0x24, 0xbf,
  0x96, 0x15, 0x6d, 0x3e, 0xae, 0x88, 0x64, 0xbf, 0x60, 0x25, 0x42, 0x3e,
  0xff, 0x3d, 0x9a, 0x3f, 0x45, 0x2e, 0xf0, 0xbe, 0x22, 0x3e, 0x2d, 0xbe,
  0xc7, 0x08, 0x66, 0xbe, 0xa7, 0xd1, 0x31, 0xbf, 0xfb, 0x77, 0xe4, 0x3e,
  0x84, 0x2c, 0x14, 0xbf, 0x2e, 0x33, 0x92, 0x3e, 0xaf, 0x9a, 0xe8, 0xbe,
  0x50, 0xcf, 0x34, 0xbd, 0xe2, 0x62, 0x99, 0xbf, 0x7a, 0x51, 0x02, 0x3f,
  0x04, 0x24, 0x58, 0xbe, 0xe9, 0x8b, 0xa6, 0x3d, 0x34, 0xa2, 0x87, 0xbf,
  0x76, 0x6a, 0x87, 0xbf, 0x8f, 0x82, 0xd8, 0x3e, 0x74, 0x7e, 0x07, 0xbe,
  0xf8, 0x1f, 0xf0, 0xbe, 0xf2, 0x25, 0x8a, 0xbe, 0x3b, 0x1c, 0x2a, 0x3f,
  0x9c, 0x1c, 0x46, 0xbe, 0xc5, 0xc3, 0xf2, 0xbe, 0x5f, 0xef, 0x05, 0x3e,
  0x13, 0xe6, 0x82, 0xbd, 0x84, 0x19, 0xa0, 0x3e, 0x32, 0x99, 0xaf, 0xbe,
  0x16, 0xc8, 0xd7, 0xbd, 0x75, 0x04, 0x1e, 0xbf, 0x79, 0x69, 0x90, 0x3e,
  0x23, 0xe3, 0x28, 0xbe, 0xef, 0xa7, 0x0f, 0xbe, 0xa3, 0xa8, 0x91, 0xbe,
  0x6f, 0x8f, 0xe8, 0x3c, 0x8e, 0x4f, 0xea, 0x3d, 0xdd, 0x28, 0xa6, 0xbe,
  0x8f, 0xfa, 0x87, 0x3f, 0x77, 0xd7, 0x03, 0xbf, 0xfd, 0x03, 0xc2, 0xbe,
  0xa4, 0x12, 0x46, 0x3e, 0xc7, 0x48, 0xee, 0xbd, 0x8f, 0x93, 0x70, 0x3d,
  0x8a, 0x79, 0x1f, 0x3f, 0x1f, 0xb2, 0x81, 0x3e, 0xba, 0xef, 0xb0, 0xbe,
  0xf7, 0x00, 0x4c, 0x3d, 0x01, 0x04, 0x07, 0x3f, 0xa5, 0x17, 0xc2, 0xbe,
  0x99, 0x0d, 0x95, 0xbe, 0xcd, 0xb9, 0xce, 0xbe, 0x39, 0x3a, 0x19, 0x40,
  0x9e, 0x69, 0x97, 0xbe, 0xf6, 0x03, 0xa3, 0xbe, 0xc9, 0xd5, 0x0e, 0xbf,
  0x15, 0x2e, 0xaa, 0xbe, 0x18, 0xe6, 0xba, 0x3f, 0x20, 0x60, 0x96, 0xbf,
  0xa0, 0x05, 0xa9, 0x3d, 0x59, 0x4d, 0xb1, 0xbe, 0x8d, 0x05, 0x58, 0x3e,
  0x0e, 0x11, 0x9b, 0xbd, 0xf0, 0x3f, 0x17, 0xbf, 0xa2, 0x68, 0x04, 0xc0,
  0x63, 0xc4, 0x35, 0xbf, 0x15, 0x1b, 0x06, 0x3f, 0x3d, 0x2b, 0x0a, 0xbf,
  0x5a, 0x72, 0x5f, 0xbe, 0x7c, 0xc0, 0x79, 0xbd, 0x58, 0x8d, 0x25, 0xbe,
  0xaf, 0x44, 0x1d, 0x3e, 0xa5, 0x56, 0xd3, 0xbe, 0x66, 0xd0, 0xbc, 0xbe,
  0x32, 0x4e, 0x68, 0xbe, 0x07, 0x0c, 0xd7, 0x3d, 0x97, 0x4e, 0xe4, 0xbd,
  0x83, 0xe2, 0x84, 0x3d, 0xd2, 0x36, 0x0c, 0x3e, 0x33, 0x30, 0x04, 0x3f,
  0x38, 0xbf, 0xce, 0x3d, 0x7f, 0x03, 0xc2, 0xbd, 0x7b, 0xae, 0x5c, 0xbe,
  0x21, 0xf5, 0x07, 0xbe, 0xdb, 0xa7, 0x0d, 0xbd, 0x7b, 0x48, 0x95, 0x3d,
  0x97, 0x71, 0xdf, 0x3d, 0xbf, 0xbd, 0x24, 0x3f, 0xa4, 0x31, 0x0e, 0xbe,
  0xfd, 0xe4, 0xeb, 0x3d, 0x78, 0xa8, 0xd2, 0x3d, 0xdd, 0x51, 0xe7, 0x3e,
  0xfa, 0x4a, 0x8d, 0xbf, 0x59, 0x22, 0xc9, 0x3e, 0xb2, 0x17, 0xc4, 0xbe,
  0x9b, 0x56, 0xa0, 0x3e, 0x72, 0x35, 0x59, 0x3e, 0xb8, 0xf4, 0xb1, 0x3d,
  0x89, 0x2b, 0x81, 0x3d, 0x19, 0x8f, 0x9a, 0xbc, 0x64, 0xd4, 0x0d, 0xbf,
  0x58, 0x8d, 0x18, 0x3f, 0xf3, 0x7e, 0x93, 0xbe, 0x07, 0xdb, 0x76, 0xbe,
  0x2e, 0x06, 0x01, 0xbc, 0x4f, 0xf8, 0x85, 0xbd, 0x5c, 0xc9, 0x9c, 0xbd,
  0xb2, 0xa8, 0x90, 0x3d, 0xd7, 0xef, 0xf3, 0x3e, 0xe6, 0xbe, 0xcb, 0x3c,
  0x48, 0x61, 0xaa, 0x3e, 0x7f, 0xd6, 0x20, 0xbb, 0x9b, 0x4e, 0xc9, 0x3f,
  0xc5, 0xd8, 0xb6, 0x3e, 0x36, 0x57, 0xe8, 0x3e, 0x5e, 0x4a, 0x90, 0x3d,
  0xe7, 0xcd, 0xf8, 0xbf, 0xe3, 0xa6, 0x98, 0x3f, 0xb6, 0x12, 0x53, 0x3e,
  0xe1, 0x6c, 0xd1, 0x3e, 0x60, 0xb7, 0x4f, 0xbf, 0xdd, 0xe8, 0x6f, 0xbe,
  0xab, 0xf0, 0x9c, 0x3f, 0x2f, 0xf5, 0x9e, 0xbd, 0xed, 0xfc, 0x60, 0xbf,
  0xd4, 0x4e, 0x6d, 0xbd, 0x0a, 0x6f, 0x92, 0xbe, 0x5b, 0x0c, 0x4b, 0x3e,
  0x1a, 0x9c, 0x9c, 0x3e, 0xe6, 0x96, 0x80, 0xbe, 0x20, 0xec, 0xe0, 0xbd,
  0xa7, 0x63, 0xf7, 0xbf, 0x92, 0xb5, 0x4b, 0xc0, 0xaa, 0x99, 0xa9, 0xbf,
  0x87, 0x4d, 0x91, 0x3e, 0xdf, 0x0c, 0xcf, 0xbe, 0x85, 0x7a, 0xd3, 0xbf,
  0x2d, 0xb1, 0xbc, 0xbf, 0x2f, 0x2a, 0x52, 0x40, 0x8c, 0xd0, 0xc1, 0xbf,
  0x04, 0x44, 0xe9, 0xbf, 0x6d, 0xff, 0xda, 0xbe, 0xe9, 0x1d, 0x0a, 0x40,
  0xdd, 0xf4, 0xf3, 0x3d, 0x31, 0x7e, 0x05, 0xbf, 0x34, 0x2a, 0xc7, 0x3d,
  0x35, 0xf0, 0x70, 0xbf, 0x73, 0x21, 0xaa, 0x3e, 0x55, 0x53, 0xb9, 0x3e,
  0x39, 0xe3, 0xb5, 0x3e, 0xa3, 0x90, 0x6a, 0xbf, 0x27, 0xc7, 0x3b, 0xbf,
  0x88, 0x7b, 0x8b, 0x3e, 0x15, 0x29, 0xc2, 0xbf, 0xec, 0x3b, 0xa2, 0xbe,
  0xcf, 0xff, 0xe0, 0xbe, 0x66, 0xc9, 0x5a, 0xc0, 0x2b, 0x23, 0xab, 0x3e,
  0xa2, 0xdd, 0x83, 0xbf, 0x24, 0x03, 0xbe, 0xbf, 0x8c, 0x81, 0x5e, 0xbf,
  0x1a, 0x92, 0x00, 0xbf, 0x10, 0x49, 0xd5, 0x3f, 0x33, 0x1f, 0x45, 0xbf,
  0x0b, 0x17, 0x09, 0x40, 0xa3, 0xd6, 0xc3, 0x3e, 0x00, 0x29, 0x1f, 0xbf,
  0x13, 0x76, 0x93, 0x3e, 0xec, 0x1d, 0xbf, 0x3e, 0xc0, 0x26, 0xa9, 0xba,
  0xb1, 0xaf, 0x43, 0xbe, 0x91, 0xb4, 0x5e, 0xbf, 0x8e, 0x5e, 0xc6, 0x3e,
  0xad, 0xc6, 0xef, 0x3e, 0xda, 0x73, 0x4f, 0xbd, 0x6a, 0xd0, 0x04, 0x3f,
  0xf0, 0xec, 0xf6, 0x3f, 0xd9, 0x71, 0x89, 0xbe, 0xb7, 0x90, 0xc3, 0x3d,
  0x2a, 0x99, 0x05, 0xc0, 0x3e, 0x63, 0x9f, 0x3e, 0x38, 0xb9, 0x29, 0xbf,
  0x02, 0x1a, 0x1e, 0xbf, 0x2b, 0x4a, 0xcd, 0xbe, 0x03, 0x55, 0xc4, 0x3f,
  0xb9, 0x65, 0xb0, 0xbd, 0x34, 0xab, 0x32, 0xbf, 0x56, 0x6c, 0x8a, 0xbc,
  0x3b, 0x6f, 0x3b, 0xbe, 0xc7, 0x03, 0x9d, 0x3e, 0x07, 0xf5, 0x87, 0xbe,
  0x8a, 0x38, 0xc2, 0x3f, 0xe7, 0xaa, 0x10, 0xc0, 0x07, 0x3b, 0xd1, 0x3e,
  0xb4, 0xf3, 0x07, 0x3d, 0xbd, 0xc8, 0x82, 0xbe, 0x1b, 0xcc, 0x8a, 0x3e,
  0xe3, 0x5a, 0x2e, 0xbf, 0x31, 0x02, 0x0f, 0xbc, 0xd3, 0x98, 0x97, 0x3e,
  0x9d, 0x9b, 0xde, 0xbe, 0x07, 0x5e, 0xca, 0x3e, 0xb8, 0x49, 0x70, 0xbf,
  0x99, 0x9e, 0x58, 0x3f, 0x7b, 0x1a, 0x48, 0x3f, 0x3c, 0x32, 0x9b, 0xbe,
  0x5c, 0x11, 0xd0, 0x3e, 0xae, 0x24, 0x3c, 0x3e, 0x6e, 0x71, 0x0c, 0x3f,
  0x4d, 0x51, 0x2f, 0xbf, 0x9b, 0xa6, 0xeb, 0x3d, 0xde, 0x9d, 0x17, 0xbf,
  0x86, 0x04, 0xa7, 0xbe, 0xc9, 0x8c, 0x0f, 0x3f, 0x21, 0x54, 0x91, 0xbd,
  0xd1, 0x59, 0xc5, 0xbe, 0x8a, 0xde, 0x77, 0xbe, 0x38, 0x50, 0x5b, 0xbe,
  0xc0, 0x8e, 0x13, 0x40, 0xd1, 0x3b, 0x69, 0x3f, 0x71, 0x9e, 0xaa, 0xbf,
  0xc8, 0x96, 0x20, 0x3e, 0x45, 0xb5, 0xb4, 0x3f, 0x1b, 0x2d, 0x9f, 0xbe,
  0xa4, 0x77, 0x4e, 0xbf, 0xa6, 0x7a, 0x16, 0xbe, 0xf8, 0x31, 0x92, 0x3f,
  0xce, 0xfd, 0x25, 0xbe, 0x3f, 0x97, 0x04, 0xbf, 0x35, 0xcb, 0x66, 0x3e,
  0x5b, 0x01, 0xdc, 0x3d, 0xc8, 0x5c, 0x0a, 0xc0, 0x60, 0x1f, 0xff, 0x3f,
  0x37, 0x1a, 0x92, 0xbf, 0xe8, 0x95, 0x5b, 0xbe, 0x1f, 0x59, 0xbf, 0xbe,
  0xad, 0x6f, 0x5c, 0xbd, 0x25, 0x33, 0x8f, 0x3f, 0x2e, 0xc3, 0x85, 0x3d,
  0x54, 0x19, 0x50, 0x3f, 0x97, 0xd1, 0xdc, 0xbe, 0xd6, 0x7b, 0x0a, 0xbf,
  0x91, 0xba, 0x10, 0x3e, 0x10, 0x55, 0x39, 0xbe, 0xb8, 0x46, 0x98, 0xbd,
  0xc4, 0xfb, 0xa4, 0xbe, 0x5c, 0x24, 0x88, 0xbf, 0x7f, 0x58, 0x05, 0x3f,
  0x36, 0x5c, 0xcc, 0xbe, 0x43, 0x29, 0x91, 0xbe, 0x5c, 0xc9, 0x54, 0x3c,
  0x5c, 0x1f, 0x9e, 0xbf, 0x1e, 0xff, 0x24, 0xbf, 0xc3, 0xe7, 0x5d, 0xbf,
  0x9e, 0xd5, 0x87, 0xba, 0x20, 0x46, 0x21, 0xbd, 0x5d, 0x5c, 0xde, 0x3d,
  0x5c, 0x94, 0x47, 0xbf, 0x92, 0x30, 0xd8, 0x3f, 0xc4, 0xd9, 0x43, 0xbf,
  0x82, 0x93, 0xc3, 0xbe, 0x5d, 0x28, 0xd9, 0x3d, 0x11, 0xe5, 0x7d, 0x3f,
  0x73, 0x07, 0xc2, 0xbe, 0x52, 0x8a, 0xaf, 0xbf, 0x4b, 0xa2, 0x4a, 0x3e,
  0xc1, 0xf2, 0x5c, 0xbf, 0x92, 0x56, 0xc4, 0xbe, 0x9e, 0xfd, 0xff, 0xff,
  0x04, 0x00, 0x00, 0x00, 0xa0, 0x00, 0x00, 0x00, 0xfd, 0x98, 0x82, 0xbe,
  0xe3, 0xe0, 0x97, 0xbf, 0x13, 0xd2, 0xed, 0xbf, 0x2e, 0x89, 0xb1, 0xbf,
  0x52, 0xbb, 0x64, 0x3f, 0xd4, 0xf6, 0xf9, 0xbf, 0x4d, 0x3d, 0x17, 0x40,
  0x8c, 0x8d, 0x40, 0xc0, 0x83, 0x25, 0x3c, 0x40, 0x29, 0xd0, 0x8b, 0x3f,
  0x76, 0x1b, 0x8e, 0x3f, 0x3b, 0xaa, 0x38, 0xc0, 0x98, 0xfd, 0xce, 0xbf,
  0xe2, 0x9f, 0xb0, 0xbd, 0x7c, 0x8b, 0x8c, 0x3e, 0x33, 0xe5, 0x4a, 0xbf,
  0x1b, 0x37, 0x89, 0xbf, 0x74, 0xc9, 0x60, 0x40, 0x97, 0xe9, 0x02, 0x40,
  0xb8, 0x7c, 0x1e, 0x3f, 0x47, 0x99, 0xd7, 0xbf, 0x67, 0xfe, 0x83, 0x3f,
  0x5c, 0xf6, 0x24, 0x40, 0x32, 0x7e, 0x0b, 0xc0, 0x90, 0xe5, 0x94, 0x3d,
  0x6d, 0x29, 0xe9, 0x3f, 0x99, 0x68, 0x79, 0xbe, 0xd3, 0x04, 0x36, 0xbf,
  0x70, 0xc8, 0x44, 0x3f, 0x3e, 0x8f, 0xbf, 0xbf, 0x4f, 0x6e, 0x9f, 0x3e,
  0xc0, 0xcc, 0xc2, 0xbf, 0x17, 0x27, 0x80, 0x40, 0x84, 0x47, 0x58, 0xc0,
  0x74, 0xf6, 0x65, 0xbf, 0x16, 0xa6, 0xf8, 0xbf, 0x06, 0xbe, 0xa3, 0x3f,
  0x80, 0xa7, 0x1a, 0xc0, 0xb2, 0x07, 0xe0, 0xbf, 0xb1, 0x9b, 0x01, 0xbf,
  0x4a, 0xfe, 0xff, 0xff, 0x04, 0x00, 0x00, 0x00, 0x10, 0x00, 0x00, 0x00,
  0x53, 0x19, 0x00, 0xc1, 0x26, 0x42, 0x12, 0x41, 0xbc, 0x02, 0xf5, 0x40,
  0x3a, 0x28, 0xe3, 0x3f, 0x66, 0xfe, 0xff, 0xff, 0x04, 0x00, 0x00, 0x00,
  0x08, 0x00, 0x00, 0x00, 0x62, 0x4a, 0xd5, 0x3f, 0x5f, 0x40, 0x4b, 0xbf,
  0x7a, 0xfe, 0xff, 0xff, 0x04, 0x00, 0x00, 0x00, 0x28, 0x00, 0x00, 0x00,
  0xfb, 0xcf, 0xfd, 0xbf, 0xe2, 0x46, 0x13, 0x3f, 0xbc, 0x9d, 0xa7, 0x3f,
  0xca, 0x3a, 0x6e, 0x3f, 0xf0, 0xa4, 0xe9, 0x3e, 0xe9, 0x82, 0x74, 0x3e,
  0xae, 0xcc, 0x18, 0xbf, 0xf1, 0xba, 0x84, 0xbe, 0xe1, 0x59, 0xad, 0xbe,
  0x74, 0x69, 0xaa, 0xbe, 0xae, 0xfe, 0xff, 0xff, 0x04, 0x00, 0x00, 0x00,
  0x50, 0x00, 0x00, 0x00, 0x50, 0x50, 0xea, 0xbf, 0xaa, 0x70, 0x45, 0xc0,
  0x35, 0xc7, 0x7a, 0xbe, 0x09, 0x6b, 0xf0, 0xbc, 0x03, 0xfa, 0x35, 0x3d,
  0x07, 0xcd, 0xa6, 0xbf, 0x35, 0xcd, 0x6c, 0x3f, 0x68, 0x85, 0xad, 0xbc,
  0xe6, 0xfe, 0x17, 0x3f, 0xc8, 0x99, 0x96, 0xbf, 0x4e, 0x95, 0x26, 0xbe,
  0x61, 0x76, 0xa3, 0xbe, 0x29, 0x9b, 0x37, 0x3f, 0xa2, 0x90, 0x04, 0x40,
  0x62, 0x24, 0x6e, 0x3f, 0x8c, 0x32, 0xee, 0xbf, 0xef, 0x11, 0xd3, 0x3f,
  0x65, 0x8a, 0xbf, 0x3f, 0x2a, 0x02, 0x0c, 0xbf, 0x7c, 0x84, 0x00, 0x3f,
  0x0a, 0xff, 0xff, 0xff, 0x04, 0x00, 0x00, 0x00, 0x50, 0x00, 0x00, 0x00,
  0x00, 0x00, 0x00, 0x00, 0x00, 0x00, 0x00, 0x00, 0x50, 0x56, 0x8f, 0xbf,
  0x52, 0x39, 0x45, 0x3f, 0xef, 0x9b, 0x9b, 0xc0, 0xc7, 0xbf, 0x4d, 0x3f,
  0x00, 0x00, 0x00, 0x00, 0x3a, 0x83, 0xbe, 0xbc, 0x0c, 0xbb, 0xa1, 0xc0,
  0x77, 0x61, 0x3b, 0xc0, 0x23, 0x67, 0xc6, 0x40, 0xc2, 0x95, 0x12, 0xc0,
  0x8c, 0x56, 0x8e, 0xc0, 0x00, 0x00, 0x00, 0x00, 0x57, 0x0a, 0xc5, 0x40,
  0x3b, 0x68, 0x32, 0x3f, 0x8c, 0xd7, 0x29, 0x3e, 0x00, 0x00, 0x00, 0x00,
  0xb0, 0x00, 0xfd, 0x3d, 0x00, 0x00, 0x00, 0x00, 0xf0, 0xf8, 0xff, 0xff,
  0xf4, 0xf8, 0xff, 0xff, 0x0f, 0x00, 0x00, 0x00, 0x4d, 0x4c, 0x49, 0x52,
  0x20, 0x43, 0x6f, 0x6e, 0x76, 0x65, 0x72, 0x74, 0x65, 0x64, 0x2e, 0x00,
  0x01, 0x00, 0x00, 0x00, 0x14, 0x00, 0x00, 0x00, 0x00, 0x00, 0x0e, 0x00,
  0x18, 0x00, 0x14, 0x00, 0x10, 0x00, 0x0c, 0x00, 0x08, 0x00, 0x04, 0x00,
  0x0e, 0x00, 0x00, 0x00, 0x14, 0x00, 0x00, 0x00, 0x1c, 0x00, 0x00, 0x00,
  0x5c, 0x01, 0x00, 0x00, 0x60, 0x01, 0x00, 0x00, 0x64, 0x01, 0x00, 0x00,
  0x04, 0x00, 0x00, 0x00, 0x6d, 0x61, 0x69, 0x6e, 0x00, 0x00, 0x00, 0x00,
  0x05, 0x00, 0x00, 0x00, 0x04, 0x01, 0x00, 0x00, 0xbc, 0x00, 0x00, 0x00,
  0x84, 0x00, 0x00, 0x00, 0x50, 0x00, 0x00, 0x00, 0x14, 0x00, 0x00, 0x00,
  0x00, 0x00, 0x0e, 0x00, 0x1a, 0x00, 0x14, 0x00, 0x10, 0x00, 0x0c, 0x00,
  0x0b, 0x00, 0x04, 0x00, 0x0e, 0x00, 0x00, 0x00, 0x1c, 0x00, 0x00, 0x00,
  0x00, 0x00, 0x00, 0x09, 0x1c, 0x00, 0x00, 0x00, 0x20, 0x00, 0x00, 0x00,
  0x01, 0x00, 0x00, 0x00, 0x00, 0x00, 0x06, 0x00, 0x08, 0x00, 0x04, 0x00,
  0x06, 0x00, 0x00, 0x00, 0x00, 0x00, 0x80, 0x3f, 0x01, 0x00, 0x00, 0x00,
  0x0d, 0x00, 0x00, 0x00, 0x01, 0x00, 0x00, 0x00, 0x0c, 0x00, 0x00, 0x00,
  0x66, 0xff, 0xff, 0xff, 0x10, 0x00, 0x00, 0x00, 0x00, 0x00, 0x00, 0x08,
  0x0c, 0x00, 0x00, 0x00, 0x10, 0x00, 0x00, 0x00, 0xbc, 0xf9, 0xff, 0xff,
  0x01, 0x00, 0x00, 0x00, 0x0c, 0x00, 0x00, 0x00, 0x03, 0x00, 0x00, 0x00,
  0x0b, 0x00, 0x00, 0x00, 0x08, 0x00, 0x00, 0x00, 0x03, 0x00, 0x00, 0x00,
  0x96, 0xff, 0xff, 0xff, 0x10, 0x00, 0x00, 0x00, 0x00, 0x00, 0x00, 0x08,
  0x10, 0x00, 0x00, 0x00, 0x14, 0x00, 0x00, 0x00, 0x86, 0xff, 0xff, 0xff,
  0x00, 0x00, 0x00, 0x01, 0x01, 0x00, 0x00, 0x00, 0x0b, 0x00, 0x00, 0x00,
  0x03, 0x00, 0x00, 0x00, 0x0a, 0x00, 0x00, 0x00, 0x07, 0x00, 0x00, 0x00,
  0x02, 0x00, 0x00, 0x00, 0xca, 0xff, 0xff, 0xff, 0x10, 0x00, 0x00, 0x00,
  0x00, 0x00, 0x00, 0x08, 0x10, 0x00, 0x00, 0x00, 0x14, 0x00, 0x00, 0x00,
  0xba, 0xff, 0xff, 0xff, 0x00, 0x00, 0x00, 0x01, 0x01, 0x00, 0x00, 0x00,
  0x0a, 0x00, 0x00, 0x00, 0x03, 0x00, 0x00, 0x00, 0x09, 0x00, 0x00, 0x00,
  0x06, 0x00, 0x00, 0x00, 0x01, 0x00, 0x00, 0x00, 0x00, 0x00, 0x0e, 0x00,
  0x16, 0x00, 0x00, 0x00, 0x10, 0x00, 0x0c, 0x00, 0x0b, 0x00, 0x04, 0x00,
  0x0e, 0x00, 0x00, 0x00, 0x18, 0x00, 0x00, 0x00, 0x00, 0x00, 0x00, 0x08,
  0x18, 0x00, 0x00, 0x00, 0x1c, 0x00, 0x00, 0x00, 0x00, 0x00, 0x06, 0x00,
  0x08, 0x00, 0x07, 0x00, 0x06, 0x00, 0x00, 0x00, 0x00, 0x00, 0x00, 0x01,
  0x01, 0x00, 0x00, 0x00, 0x09, 0x00, 0x00, 0x00, 0x03, 0x00, 0x00, 0x00,
  0x00, 0x00, 0x00, 0x00, 0x05, 0x00, 0x00, 0x00, 0x04, 0x00, 0x00, 0x00,
  0x01, 0x00, 0x00, 0x00, 0x0d, 0x00, 0x00, 0x00, 0x01, 0x00, 0x00, 0x00,
  0x00, 0x00, 0x00, 0x00, 0x0e, 0x00, 0x00, 0x00, 0x38, 0x05, 0x00, 0x00,
  0xc8, 0x04, 0x00, 0x00, 0x58, 0x04, 0x00, 0x00, 0x00, 0x04, 0x00, 0x00,
  0xac, 0x03, 0x00, 0x00, 0x64, 0x03, 0x00, 0x00, 0x18, 0x03, 0x00, 0x00,
  0xcc, 0x02, 0x00, 0x00, 0x80, 0x02, 0x00, 0x00, 0xf8, 0x01, 0x00, 0x00,
  0x68, 0x01, 0x00, 0x00, 0xd8, 0x00, 0x00, 0x00, 0x60, 0x00, 0x00, 0x00,
  0x04, 0x00, 0x00, 0x00, 0x16, 0xfb, 0xff, 0xff, 0x00, 0x00, 0x00, 0x01,
  0x14, 0x00, 0x00, 0x00, 0x1c, 0x00, 0x00, 0x00, 0x1c, 0x00, 0x00, 0x00,
  0x0e, 0x00, 0x00, 0x00, 0x34, 0x00, 0x00, 0x00, 0x02, 0x00, 0x00, 0x00,
  0xff, 0xff, 0xff, 0xff, 0x0a, 0x00, 0x00, 0x00, 0x00, 0xfb, 0xff, 0xff,
  0x19, 0x00, 0x00, 0x00, 0x53, 0x74, 0x61, 0x74, 0x65, 0x66, 0x75, 0x6c,
  0x50, 0x61, 0x72, 0x74, 0x69, 0x74, 0x69, 0x6f, 0x6e, 0x65, 0x64, 0x43,
  0x61, 0x6c, 0x6c, 0x3a, 0x30, 0x00, 0x00, 0x00, 0x02, 0x00, 0x00, 0x00,
  0x01, 0x00, 0x00, 0x00, 0x0a, 0x00, 0x00, 0x00, 0x6e, 0xfb, 0xff, 0xff,
  0x00, 0x00, 0x00, 0x01, 0x14, 0x00, 0x00, 0x00, 0x1c, 0x00, 0x00, 0x00,
  0x1c, 0x00, 0x00, 0x00, 0x0d, 0x00, 0x00, 0x00, 0x50, 0x00, 0x00, 0x00,
  0x02, 0x00, 0x00, 0x00, 0xff, 0xff, 0xff, 0xff, 0x0a, 0x00, 0x00, 0x00,
  0x58, 0xfb, 0xff, 0xff, 0x34, 0x00, 0x00, 0x00, 0x73, 0x65, 0x71, 0x75,
  0x65, 0x6e, 0x74, 0x69, 0x61, 0x6c, 0x2f, 0x64, 0x65, 0x6e, 0x73, 0x65,
  0x5f, 0x33, 0x2f, 0x4d, 0x61, 0x74, 0x4d, 0x75, 0x6c, 0x3b, 0x73, 0x65,
  0x71, 0x75, 0x65, 0x6e, 0x74, 0x69, 0x61, 0x6c, 0x2f, 0x64, 0x65, 0x6e,
  0x73, 0x65, 0x5f, 0x33, 0x2f, 0x42, 0x69, 0x61, 0x73, 0x41, 0x64, 0x64,
  0x00, 0x00, 0x00, 0x00, 0x02, 0x00, 0x00, 0x00, 0x01, 0x00, 0x00, 0x00,
  0x0a, 0x00, 0x00, 0x00, 0xe2, 0xfb, 0xff, 0xff, 0x00, 0x00, 0x00, 0x01,
  0x14, 0x00, 0x00, 0x00, 0x1c, 0x00, 0x00, 0x00, 0x1c, 0x00, 0x00, 0x00,
  0x0c, 0x00, 0x00, 0x00, 0x68, 0x00, 0x00, 0x00, 0x02, 0x00, 0x00, 0x00,
  0xff, 0xff, 0xff, 0xff, 0x14, 0x00, 0x00, 0x00, 0xcc, 0xfb, 0xff, 0xff,
  0x4c, 0x00, 0x00, 0x00, 0x73, 0x65, 0x71, 0x75, 0x65, 0x6e, 0x74, 0x69,
  0x61, 0x6c, 0x2f, 0x64, 0x65, 0x6e, 0x73, 0x65, 0x5f, 0x32, 0x2f, 0x4d,
  0x61, 0x74, 0x4d, 0x75, 0x6c, 0x3b, 0x73, 0x65, 0x71, 0x75, 0x65, 0x6e,
  0x74, 0x69, 0x61, 0x6c, 0x2f, 0x64, 0x65, 0x6e, 0x73, 0x65, 0x5f, 0x32,
  0x2f, 0x52, 0x65, 0x6c, 0x75, 0x3b, 0x73, 0x65, 0x71, 0x75, 0x65, 0x6e,
  0x74, 0x69, 0x61, 0x6c, 0x2f, 0x64, 0x65, 0x6e, 0x73, 0x65, 0x5f, 0x32,
  0x2f, 0x42, 0x69, 0x61, 0x73, 0x41, 0x64, 0x64, 0x00, 0x00, 0x00, 0x00,
  0x02, 0x00, 0x00, 0x00, 0x01, 0x00, 0x00, 0x00, 0x14, 0x00, 0x00, 0x00,
  0x6e, 0xfc, 0xff, 0xff, 0x00, 0x00, 0x00, 0x01, 0x14, 0x00, 0x00, 0x00,
  0x1c, 0x00, 0x00, 0x00, 0x1c, 0x00, 0x00, 0x00, 0x0b, 0x00, 0x00, 0x00,
  0x68, 0x00, 0x00, 0x00, 0x02, 0x00, 0x00, 0x00, 0xff, 0xff, 0xff, 0xff,
  0x14, 0x00, 0x00, 0x00, 0x58, 0xfc, 0xff, 0xff, 0x4c, 0x00, 0x00, 0x00,
  0x73, 0x65, 0x71, 0x75, 0x65, 0x6e, 0x74, 0x69, 0x61, 0x6c, 0x2f, 0x64,
  0x65, 0x6e, 0x73, 0x65, 0x5f, 0x31, 0x2f, 0x4d, 0x61, 0x74, 0x4d, 0x75,
  0x6c, 0x3b, 0x73, 0x65, 0x71, 0x75, 0x65, 0x6e, 0x74, 0x69, 0x61, 0x6c,
  0x2f, 0x64, 0x65, 0x6e, 0x73, 0x65, 0x5f, 0x31, 0x2f, 0x52, 0x65, 0x6c,
  0x75, 0x3b, 0x73, 0x65, 0x71, 0x75, 0x65, 0x6e, 0x74, 0x69, 0x61, 0x6c,
  0x2f, 0x64, 0x65, 0x6e, 0x73, 0x65, 0x5f, 0x31, 0x2f, 0x42, 0x69, 0x61,
  0x73, 0x41, 0x64, 0x64, 0x00, 0x00, 0x00, 0x00, 0x02, 0x00, 0x00, 0x00,
  0x01, 0x00, 0x00, 0x00, 0x14, 0x00, 0x00, 0x00, 0xfa, 0xfc, 0xff, 0xff,
  0x00, 0x00, 0x00, 0x01, 0x14, 0x00, 0x00, 0x00, 0x1c, 0x00, 0x00, 0x00,
  0x1c, 0x00, 0x00, 0x00, 0x0a, 0x00, 0x00, 0x00, 0x60, 0x00, 0x00, 0x00,
  0x02, 0x00, 0x00, 0x00, 0xff, 0xff, 0xff, 0xff, 0x02, 0x00, 0x00, 0x00,
  0xe4, 0xfc, 0xff, 0xff, 0x46, 0x00, 0x00, 0x00, 0x73, 0x65, 0x71, 0x75,
  0x65, 0x6e, 0x74, 0x69, 0x61, 0x6c, 0x2f, 0x64, 0x65, 0x6e, 0x73, 0x65,
  0x2f, 0x4d, 0x61, 0x74, 0x4d, 0x75, 0x6c, 0x3b, 0x73, 0x65, 0x71, 0x75,
  0x65, 0x6e, 0x74, 0x69, 0x61, 0x6c, 0x2f, 0x64, 0x65, 0x6e, 0x73, 0x65,
  0x2f, 0x52, 0x65, 0x6c, 0x75, 0x3b, 0x73, 0x65, 0x71, 0x75, 0x65, 0x6e,
  0x74, 0x69, 0x61, 0x6c, 0x2f, 0x64, 0x65, 0x6e, 0x73, 0x65, 0x2f, 0x42,
  0x69, 0x61, 0x73, 0x41, 0x64, 0x64, 0x00, 0x00, 0x02, 0x00, 0x00, 0x00,
  0x01, 0x00, 0x00, 0x00, 0x02, 0x00, 0x00, 0x00, 0xea, 0xfd, 0xff, 0xff,
  0x00, 0x00, 0x00, 0x01, 0x10, 0x00, 0x00, 0x00, 0x10, 0x00, 0x00, 0x00,
  0x09, 0x00, 0x00, 0x00, 0x28, 0x00, 0x00, 0x00, 0x58, 0xfd, 0xff, 0xff,
  0x19, 0x00, 0x00, 0x00, 0x73, 0x65, 0x71, 0x75, 0x65, 0x6e, 0x74, 0x69,
  0x61, 0x6c, 0x2f, 0x64, 0x65, 0x6e, 0x73, 0x65, 0x5f, 0x33, 0x2f, 0x4d,
  0x61, 0x74, 0x4d, 0x75, 0x6c, 0x00, 0x00, 0x00, 0x02, 0x00, 0x00, 0x00,
  0x0a, 0x00, 0x00, 0x00, 0x14, 0x00, 0x00, 0x00, 0x32, 0xfe, 0xff, 0xff,
  0x00, 0x00, 0x00, 0x01, 0x10, 0x00, 0x00, 0x00, 0x10, 0x00, 0x00, 0x00,
  0x08, 0x00, 0x00, 0x00, 0x28, 0x00, 0x00, 0x00, 0xa0, 0xfd, 0xff, 0xff,
  0x19, 0x00, 0x00, 0x00, 0x73, 0x65, 0x71, 0x75, 0x65, 0x6e, 0x74, 0x69,
  0x61, 0x6c, 0x2f, 0x64, 0x65, 0x6e, 0x73, 0x65, 0x5f, 0x32, 0x2f, 0x4d,
  0x61, 0x74, 0x4d, 0x75, 0x6c, 0x00, 0x00, 0x00, 0x02, 0x00, 0x00, 0x00,
  0x14, 0x00, 0x00, 0x00, 0x14, 0x00, 0x00, 0x00, 0x7a, 0xfe, 0xff, 0xff,
  0x00, 0x00, 0x00, 0x01, 0x10, 0x00, 0x00, 0x00, 0x10, 0x00, 0x00, 0x00,
  0x07, 0x00, 0x00, 0x00, 0x28, 0x00, 0x00, 0x00, 0xe8, 0xfd, 0xff, 0xff,
  0x19, 0x00, 0x00, 0x00, 0x73, 0x65, 0x71, 0x75, 0x65, 0x6e, 0x74, 0x69,
  0x61, 0x6c, 0x2f, 0x64, 0x65, 0x6e, 0x73, 0x65, 0x5f, 0x31, 0x2f, 0x4d,
  0x61, 0x74, 0x4d, 0x75, 0x6c, 0x00, 0x00, 0x00, 0x02, 0x00, 0x00, 0x00,
  0x14, 0x00, 0x00, 0x00, 0x02, 0x00, 0x00, 0x00, 0xc2, 0xfe, 0xff, 0xff,
  0x00, 0x00, 0x00, 0x01, 0x10, 0x00, 0x00, 0x00, 0x10, 0x00, 0x00, 0x00,
  0x06, 0x00, 0x00, 0x00, 0x24, 0x00, 0x00, 0x00, 0x30, 0xfe, 0xff, 0xff,
  0x17, 0x00, 0x00, 0x00, 0x73, 0x65, 0x71, 0x75, 0x65, 0x6e, 0x74, 0x69,
  0x61, 0x6c, 0x2f, 0x64, 0x65, 0x6e, 0x73, 0x65, 0x2f, 0x4d, 0x61, 0x74,
  0x4d, 0x75, 0x6c, 0x00, 0x02, 0x00, 0x00, 0x00, 0x02, 0x00, 0x00, 0x00,
  0x02, 0x00, 0x00, 0x00, 0x06, 0xff, 0xff, 0xff, 0x00, 0x00, 0x00, 0x01,
  0x10, 0x00, 0x00, 0x00, 0x10, 0x00, 0x00, 0x00, 0x05, 0x00, 0x00, 0x00,
  0x34, 0x00, 0x00, 0x00, 0x74, 0xfe, 0xff, 0xff, 0x27, 0x00, 0x00, 0x00,
  0x73, 0x65, 0x71, 0x75, 0x65, 0x6e, 0x74, 0x69, 0x61, 0x6c, 0x2f, 0x64,
  0x65, 0x6e, 0x73, 0x65, 0x2f, 0x42, 0x69, 0x61, 0x73, 0x41, 0x64, 0x64,
  0x2f, 0x52, 0x65, 0x61, 0x64, 0x56, 0x61, 0x72, 0x69, 0x61, 0x62, 0x6c,
  0x65, 0x4f, 0x70, 0x00, 0x01, 0x00, 0x00, 0x00, 0x02, 0x00, 0x00, 0x00,
  0x56, 0xff, 0xff, 0xff, 0x00, 0x00, 0x00, 0x01, 0x10, 0x00, 0x00, 0x00,
  0x10, 0x00, 0x00, 0x00, 0x04, 0x00, 0x00, 0x00, 0x38, 0x00, 0x00, 0x00,
  0xc4, 0xfe, 0xff, 0xff, 0x29, 0x00, 0x00, 0x00, 0x73, 0x65, 0x71, 0x75,
  0x65, 0x6e, 0x74, 0x69, 0x61, 0x6c, 0x2f, 0x64, 0x65, 0x6e, 0x73, 0x65,
  0x5f, 0x33, 0x2f, 0x42, 0x69, 0x61, 0x73, 0x41, 0x64, 0x64, 0x2f, 0x52,
  0x65, 0x61, 0x64, 0x56, 0x61, 0x72, 0x69, 0x61, 0x62, 0x6c, 0x65, 0x4f,
  0x70, 0x00, 0x00, 0x00, 0x01, 0x00, 0x00, 0x00, 0x0a, 0x00, 0x00, 0x00,
  0xaa, 0xff, 0xff, 0xff, 0x00, 0x00, 0x00, 0x01, 0x10, 0x00, 0x00, 0x00,
  0x10, 0x00, 0x00, 0x00, 0x03, 0x00, 0x00, 0x00, 0x38, 0x00, 0x00, 0x00,
  0x18, 0xff, 0xff, 0xff, 0x29, 0x00, 0x00, 0x00, 0x73, 0x65, 0x71, 0x75,
  0x65, 0x6e, 0x74, 0x69, 0x61, 0x6c, 0x2f, 0x64, 0x65, 0x6e, 0x73, 0x65,
  0x5f, 0x32, 0x2f, 0x42, 0x69, 0x61, 0x73, 0x41, 0x64, 0x64, 0x2f, 0x52,
  0x65, 0x61, 0x64, 0x56, 0x61, 0x72, 0x69, 0x61, 0x62, 0x6c, 0x65, 0x4f,
  0x70, 0x00, 0x00, 0x00, 0x01, 0x00, 0x00, 0x00, 0x14, 0x00, 0x00, 0x00,
  0x00, 0x00, 0x16, 0x00, 0x18, 0x00, 0x14, 0x00, 0x00, 0x00, 0x10, 0x00,
  0x0c, 0x00, 0x08, 0x00, 0x00, 0x00, 0x00, 0x00, 0x00, 0x00, 0x07, 0x00,
  0x16, 0x00, 0x00, 0x00, 0x00, 0x00, 0x00, 0x01, 0x10, 0x00, 0x00, 0x00,
  0x10, 0x00, 0x00, 0x00, 0x02, 0x00, 0x00, 0x00, 0x38, 0x00, 0x00, 0x00,
  0x84, 0xff, 0xff, 0xff, 0x29, 0x00, 0x00, 0x00, 0x73, 0x65, 0x71, 0x75,
  0x65, 0x6e, 0x74, 0x69, 0x61, 0x6c, 0x2f, 0x64, 0x65, 0x6e, 0x73, 0x65,
  0x5f, 0x31, 0x2f, 0x42, 0x69, 0x61, 0x73, 0x41, 0x64, 0x64, 0x2f, 0x52,
  0x65, 0x61, 0x64, 0x56, 0x61, 0x72, 0x69, 0x61, 0x62, 0x6c, 0x65, 0x4f,
  0x70, 0x00, 0x00, 0x00, 0x01, 0x00, 0x00, 0x00, 0x14, 0x00, 0x00, 0x00,
  0x00, 0x00, 0x16, 0x00, 0x1c, 0x00, 0x18, 0x00, 0x00, 0x00, 0x14, 0x00,
  0x10, 0x00, 0x0c, 0x00, 0x00, 0x00, 0x00, 0x00, 0x08, 0x00, 0x07, 0x00,
  0x16, 0x00, 0x00, 0x00, 0x00, 0x00, 0x00, 0x01, 0x14, 0x00, 0x00, 0x00,
  0x20, 0x00, 0x00, 0x00, 0x20, 0x00, 0x00, 0x00, 0x01, 0x00, 0x00, 0x00,
  0x3c, 0x00, 0x00, 0x00, 0x02, 0x00, 0x00, 0x00, 0xff, 0xff, 0xff, 0xff,
  0x02, 0x00, 0x00, 0x00, 0x04, 0x00, 0x04, 0x00, 0x04, 0x00, 0x00, 0x00,
  0x1d, 0x00, 0x00, 0x00, 0x73, 0x65, 0x72, 0x76, 0x69, 0x6e, 0x67, 0x5f,
  0x64, 0x65, 0x66, 0x61, 0x75, 0x6c, 0x74, 0x5f, 0x64, 0x65, 0x6e, 0x73,
  0x65, 0x5f, 0x69, 0x6e, 0x70, 0x75, 0x74, 0x3a, 0x30, 0x00, 0x00, 0x00,
  0x02, 0x00, 0x00, 0x00, 0x01, 0x00, 0x00, 0x00, 0x02, 0x00, 0x00, 0x00,
  0x02, 0x00, 0x00, 0x00, 0x20, 0x00, 0x00, 0x00, 0x04, 0x00, 0x00, 0x00,
  0xf4, 0xff, 0xff, 0xff, 0x19, 0x00, 0x00, 0x00, 0x00, 0x00, 0x00, 0x19,
  0x0c, 0x00, 0x0c, 0x00, 0x0b, 0x00, 0x00, 0x00, 0x00, 0x00, 0x04, 0x00,
  0x0c, 0x00, 0x00, 0x00, 0x09, 0x00, 0x00, 0x00, 0x00, 0x00, 0x00, 0x09
};